{
  "oxide</w>": 28235,
  "mn</w>": 4057,
  "yap": 48700,
  "trent": 45885,
  "bart": 14838,
  "ðŁİĻ</w>": 29753,
  "kindleunlimited</w>": 32164,
  "hathaway</w>": 31801,
  "tly</w>": 1646,
  "aar": 4695,
  "profile": 14291,
  "gros</w>": 32639,
  "spawn</w>": 29166,
  "yr": 18395,
  "solutions</w>": 5140,
  "oga</w>": 47312,
  "mondays</w>": 13815,
  "farah</w>": 31547,
  "questioned</w>": 31847,
  "mancrush": 36945,
  "gazette</w>": 20443,
  "incl": 27857,
  "fried</w>": 7310,
  "speare</w>": 43859,
  "worsen": 46344,
  "nya</w>": 24165,
  "truck</w>": 4629,
  "uro": 17343,
  "mew</w>": 40368,
  "alps</w>": 18191,
  "smere</w>": 39629,
  "ghar": 37334,
  "adren": 24204,
  "uzbe": 43007,
  "desol": 41258,
  "doses</w>": 37873,
  "omy": 40805,
  "ammunition</w>": 35060,
  "bunk</w>": 41236,
  "landed</w>": 9873,
  "dv</w>": 26265,
  "boro": 26796,
  "plein</w>": 43429,
  "riders</w>": 10826,
  "australians</w>": 31488,
  "centri": 30872,
  "berwick</w>": 40407,
  "econom": 2768,
  "miz</w>": 30795,
  "oric</w>": 43810,
  "jimmie</w>": 45679,
  "guests</w>": 6212,
  "reall": 39686,
  "frosh</w>": 47069,
  "mothersday</w>": 15583,
  "thoroughbred</w>": 43248,
  "mistak": 20478,
  "mcgrath</w>": 28759,
  "karin</w>": 43917,
  "spino": 40848,
  "coupon</w>": 14019,
  "shook</w>": 20730,
  "jaw": 14804,
  "linked</w>": 11059,
  "fascist</w>": 23870,
  "muhammad</w>": 12259,
  "pian</w>": 24637,
  "pondering</w>": 47395,
  "deloitte</w>": 38667,
  "goods</w>": 9340,
  "airfield</w>": 40525,
  "reef</w>": 15624,
  "procrastin": 25586,
  "rider</w>": 9707,
  "oid</w>": 14758,
  "cito</w>": 42636,
  "crashed</w>": 16638,
  "imac</w>": 40675,
  "lett</w>": 9778,
  "mbuhari</w>": 36752,
  "bridgeport</w>": 45201,
  "ðŁĮ¿</w>": 18588,
  "certainty</w>": 20054,
  "neverland</w>": 41483,
  "gauge</w>": 18728,
  "peeled</w>": 33533,
  "roses</w>": 9061,
  "knowledge": 27864,
  "igle": 29912,
  "netherlands</w>": 11060,
  "maclean</w>": 47137,
  "potholes</w>": 47506,
  "boating</w>": 21951,
  "gentleman</w>": 13293,
  "associate</w>": 11777,
  "grant": 18682,
  "tional</w>": 2986,
  "leviathan</w>": 41736,
  "spas": 31714,
  "glio</w>": 29785,
  "orioles</w>": 21430,
  "edtech": 41825,
  "vijay": 12014,
  "est": 2291,
  "kl": 8498,
  "baking</w>": 11467,
  "menon</w>": 38255,
  "locks</w>": 13212,
  "eur": 18343,
  "new</w>": 686,
  "tones</w>": 14744,
  "catalan</w>": 30532,
  "alline</w>": 48182,
  "sette</w>": 14613,
  "booming</w>": 33487,
  "descending</w>": 36620,
  "agon</w>": 14901,
  "ensis</w>": 32842,
  "balm</w>": 24962,
  "distortion</w>": 43690,
  "mediterran": 14358,
  "kop": 16623,
  "appearing</w>": 18759,
  "ttip</w>": 46993,
  "macle": 33843,
  "mal": 1662,
  "cumber": 15309,
  "russians</w>": 25413,
  "aka</w>": 3412,
  "schaft</w>": 41010,
  "starts</w>": 3105,
  "cave</w>": 9654,
  "lame</w>": 23192,
  "fran</w>": 18878,
  "aquarium</w>": 16814,
  "mcgra": 29367,
  "winona</w>": 49202,
  "mixtape</w>": 11044,
  "waz": 20889,
  "lund": 30975,
  "parasite</w>": 42460,
  "ðŁĺł</w>": 34094,
  "brig": 11081,
  "âĿĮ": 44485,
  "winger</w>": 22727,
  "tails</w>": 16066,
  "queensland</w>": 15168,
  "ignition</w>": 36115,
  "icons</w>": 15553,
  "zombies": 46702,
  "clinic</w>": 7926,
  "fitz": 11120,
  "engraving</w>": 33309,
  "oto</w>": 23399,
  "hil</w>": 17927,
  "centuries</w>": 19014,
  "disappears</w>": 44406,
  "poa</w>": 43912,
  "veronica</w>": 24039,
  "canvassing</w>": 33783,
  "terror": 9596,
  "cpac</w>": 45731,
  "hanukkah</w>": 34247,
  "piedmont</w>": 39691,
  "every</w>": 1505,
  "sincerely</w>": 25673,
  "invested</w>": 22536,
  "claws</w>": 29161,
  "fg</w>": 6823,
  "historymonth</w>": 19356,
  "âĢķ</w>": 14236,
  "oura</w>": 36352,
  "therapy</w>": 5257,
  "jesse</w>": 11770,
  "loading</w>": 9975,
  "financing</w>": 18375,
  "ðŁĩ³ðŁĩ": 17747,
  "shelter</w>": 8599,
  "plenary</w>": 19891,
  "edu": 11757,
  "bargain</w>": 15076,
  "smafia</w>": 47686,
  "discarded</w>": 45197,
  "rps</w>": 49215,
  "agar": 13199,
  "âĢĶ></w>": 26341,
  "Ľ": 249,
  "ret</w>": 10048,
  "tracy</w>": 15508,
  "investors</w>": 10486,
  "proctor</w>": 47204,
  "manhattan</w>": 10961,
  "noms</w>": 35706,
  "impeachment</w>": 32979,
  "eper</w>": 43071,
  "racecourse</w>": 25036,
  "esque</w>": 25877,
  "ters</w>": 1737,
  "paradigm</w>": 33485,
  "prece": 15361,
  "!)</w>": 4571,
  "artery</w>": 40062,
  "muni": 27327,
  "barefoot</w>": 30327,
  "hilarious</w>": 8358,
  "acles</w>": 34164,
  "punishment</w>": 19099,
  "panelists</w>": 24619,
  "m</w>": 332,
  "polka</w>": 29476,
  "alam": 16612,
  "zen</w>": 3928,
  "foreclo": 44916,
  "otp</w>": 29822,
  "rane</w>": 28852,
  "vidya</w>": 45264,
  "ana</w>": 1388,
  "legalize</w>": 42921,
  "ðŁĳĭ": 19351,
  "motorsport</w>": 18371,
  "pockets</w>": 19566,
  "honolulu</w>": 28096,
  "lingerie</w>": 18473,
  "flavor</w>": 11818,
  "cny</w>": 31614,
  "loh": 49129,
  "auckland</w>": 16072,
  "dj": 3761,
  "wheeling</w>": 34839,
  "quare</w>": 42549,
  "hac": 20343,
  "edge</w>": 5461,
  "place": 14884,
  "kamloops</w>": 36602,
  "steep</w>": 20714,
  "fifth</w>": 8772,
  "violet</w>": 16118,
  "shud</w>": 45782,
  "stevenson</w>": 25091,
  "tic</w>": 1550,
  "spotlight</w>": 7901,
  "mansfield</w>": 25543,
  "ðŁĳı": 3802,
  "ittle</w>": 21366,
  "clique</w>": 34983,
  "whoo": 20003,
  "slideshow</w>": 42817,
  "party</w>": 1580,
  "lb</w>": 7422,
  "zepp": 22977,
  "ill</w>": 660,
  "paramedics</w>": 35991,
  "selfless</w>": 34236,
  "calgary</w>": 10797,
  "-_-</w>": 27227,
  "âĢįâĻĢï¸ı</w>": 9605,
  "jimmy": 12215,
  "mers</w>": 4199,
  "zza</w>": 14642,
  "fulham</w>": 25574,
  "moderated</w>": 27928,
  "whitman</w>": 32394,
  "whis": 6024,
  "ď</w>": 459,
  "ðŁĩ®ðŁĩ³</w>": 23602,
  "fpp</w>": 36464,
  "matthias</w>": 45104,
  "limbs</w>": 34886,
  "arming</w>": 19766,
  "ðŁĵį": 25043,
  "ubi": 26758,
  "rehab</w>": 16973,
  "consor": 27108,
  "Ú": 150,
  "peregr": 37479,
  "supermarket</w>": 19897,
  "indictment</w>": 42278,
  "circuit": 35583,
  "weirdo</w>": 32476,
  "quite</w>": 4135,
  "aff": 8849,
  "keri</w>": 43447,
  "stones</w>": 6885,
  "ett": 32729,
  "maryam</w>": 36393,
  "âĢĶ</w>": 2005,
  "director": 20337,
  "costco</w>": 31045,
  "bacon": 48666,
  "lazarus</w>": 49126,
  "respiratory</w>": 24483,
  "elise</w>": 27124,
  "bright</w>": 4852,
  "hermes</w>": 34563,
  "ood</w>": 738,
  "rime</w>": 27064,
  "hamill": 45784,
  "grammys</w>": 18121,
  "oto": 23946,
  "beer": 8885,
  "squ": 1653,
  "deed</w>": 30260,
  "pierre": 34670,
  "bottoms</w>": 31524,
  "goto": 39715,
  "beings</w>": 17998,
  "mtvstars</w>": 19948,
  "cycled</w>": 31055,
  "alad": 23074,
  "scottsdale</w>": 27817,
  "legs</w>": 7072,
  "def</w>": 11649,
  "turb": 18973,
  "ë</w>": 423,
  "load": 4515,
  "latina</w>": 27936,
  "bler": 31305,
  "battling</w>": 17268,
  "friday</w>": 1461,
  "psi</w>": 24533,
  "âľĭ": 39383,
  "artillery</w>": 24465,
  "modi</w>": 7774,
  "esh</w>": 13407,
  "evenly</w>": 45974,
  "iste</w>": 32563,
  "shoo": 1975,
  "raging</w>": 25015,
  "merit</w>": 20830,
  "clone</w>": 22854,
  "pile": 44403,
  "3": 18,
  "ðŁĳĬ": 8897,
  "âļ¡</w>": 20712,
  "ypg</w>": 37386,
  "minho</w>": 21318,
  "sheer</w>": 17577,
  "staying</w>": 8993,
  "epidemic</w>": 21522,
  ";))</w>": 41873,
  ":(</w>": 5965,
  "velo</w>": 33850,
  "profitable</w>": 25465,
  "hong": 12144,
  "crypto": 8080,
  "kan</w>": 8101,
  "haw</w>": 26954,
  "sto": 928,
  "mild</w>": 16085,
  "gold</w>": 2209,
  "achi</w>": 9087,
  "ysm</w>": 23842,
  "fbs</w>": 48454,
  "scaled</w>": 41923,
  "topped</w>": 12588,
  "fortunate</w>": 19898,
  "trench</w>": 23846,
  "submissions</w>": 21566,
  "heechul</w>": 42487,
  "robert": 8811,
  "jan": 1891,
  "arc": 4997,
  "redman</w>": 44753,
  "dhanush": 26162,
  "dune</w>": 28208,
  "dublin</w>": 6145,
  "\"...</w>": 9049,
  "lashes</w>": 21015,
  "gymna": 13517,
  "epis": 24616,
  "saved</w>": 7137,
  "ellers</w>": 19010,
  "mackin": 26010,
  "mississauga</w>": 28393,
  "oural</w>": 45840,
  "confidence</w>": 8510,
  "kiddo</w>": 36360,
  "lorry</w>": 31354,
  "ros": 5288,
  "spectral</w>": 45441,
  "trax</w>": 34421,
  "gggg</w>": 33513,
  "casts</w>": 10595,
  "atomic</w>": 18996,
  "nipp": 24634,
  "understood</w>": 17303,
  "libre": 49210,
  "jame": 12341,
  "edelman</w>": 48139,
  "mello</w>": 47594,
  "coon": 34260,
  "incindia</w>": 26161,
  "sunbathing</w>": 46994,
  "frankie</w>": 16215,
  "afor": 43102,
  "special</w>": 1689,
  "directors</w>": 11940,
  "hipp": 13607,
  "deported</w>": 39320,
  "transmission</w>": 16103,
  "treating</w>": 13842,
  "characteristics</w>": 26037,
  "want": 18356,
  "cinnamon</w>": 13460,
  "restaur": 3775,
  "happiest</w>": 13811,
  "vig": 8549,
  "sneaking</w>": 34633,
  "upd": 3226,
  "chia</w>": 19147,
  "helle</w>": 46968,
  "telling</w>": 5507,
  "depend</w>": 27371,
  "hanged</w>": 40807,
  "ðŁĺĶ</w>": 11432,
  "blad</w>": 36635,
  "ient</w>": 13115,
  "pilot</w>": 6687,
  "intermitt": 44946,
  "ðŁĵĨ</w>": 23471,
  "tta</w>": 2646,
  "bec</w>": 10773,
  "bullied</w>": 34689,
  "cheered</w>": 38111,
  "walgreens</w>": 38490,
  "unhcr</w>": 43451,
  "igh": 2712,
  "int</w>": 1207,
  "åĲ": 41673,
  "sales": 13347,
  "soldier</w>": 9355,
  "mosquit": 39699,
  "julien</w>": 32595,
  "intricate</w>": 29616,
  "rips</w>": 30182,
  "kej": 15674,
  "awarenessweek</w>": 35294,
  "fanart</w>": 7855,
  "daley</w>": 28544,
  "sasha": 46078,
  "dhawan</w>": 44699,
  "jace</w>": 43286,
  "courthouse</w>": 22205,
  "howto": 38191,
  "bjj</w>": 27437,
  "dale": 11533,
  "doll</w>": 9286,
  "monogram</w>": 39665,
  "traction</w>": 10644,
  "mzan": 36322,
  "lawyers</w>": 14232,
  "bread": 18886,
  "special": 11422,
  "lassic</w>": 39430,
  "thex": 35990,
  "0": 15,
  "ministry</w>": 8742,
  "shenanigans</w>": 26590,
  "stork</w>": 46452,
  "cÃ©": 36454,
  "dunk</w>": 17222,
  "ðŁİĬ</w>": 22425,
  "scaffolding</w>": 41687,
  "lectures</w>": 21118,
  "ization</w>": 10847,
  "too": 1843,
  "ikon</w>": 19156,
  "garde</w>": 22649,
  "sica</w>": 34125,
  "pray</w>": 6041,
  "fuelled</w>": 48357,
  "dys": 11022,
  "infinity</w>": 12895,
  "rough": 11699,
  "senators</w>": 16889,
  "kc</w>": 8638,
  "tiny</w>": 5591,
  "audition</w>": 18673,
  "reas": 9121,
  "bios</w>": 48505,
  "tyl</w>": 47537,
  "hijab</w>": 31407,
  "hopes</w>": 10018,
  "play": 1222,
  "oddly</w>": 34213,
  "ses": 23708,
  "decline</w>": 15084,
  "suction</w>": 42786,
  "funfactfriday</w>": 40710,
  "ðŁ¤·": 13185,
  "eman</w>": 36868,
  "++</w>": 19056,
  "railminindia</w>": 35557,
  "acor": 22076,
  "slammed</w>": 29772,
  "ketch</w>": 35371,
  "lesbians</w>": 43182,
  "ther": 1160,
  "should": 14947,
  "hani</w>": 18374,
  "kanyewest</w>": 31943,
  "skype</w>": 17069,
  "wanting</w>": 12801,
  "ito</w>": 4661,
  "surprisingly</w>": 17367,
  "despic": 32442,
  "atlanta</w>": 6839,
  "dorset</w>": 16047,
  "iva</w>": 42463,
  "oz</w>": 6044,
  "zek</w>": 40829,
  "weav": 22260,
  "testify</w>": 33088,
  "ingthe": 20170,
  "aze": 41157,
  "maris</w>": 33093,
  "covenant</w>": 29647,
  "beachlife</w>": 43824,
  "kum": 18086,
  "dramas</w>": 33467,
  "kb</w>": 19960,
  "ilan</w>": 28076,
  "baker</w>": 7743,
  "rods</w>": 28618,
  "âı³</w>": 47617,
  "greets</w>": 25464,
  "sharepoint</w>": 39213,
  "wikileaks</w>": 28731,
  "ickers</w>": 30701,
  "exo</w>": 5842,
  "charles</w>": 5127,
  "comfortable</w>": 8652,
  "chris</w>": 2978,
  "rero</w>": 21860,
  "av": 722,
  "isp</w>": 39041,
  "fein": 46707,
  "wa</w>": 2663,
  "know</w>": 1038,
  "mainland</w>": 27629,
  "activities</w>": 6514,
  "strategies</w>": 9942,
  "fted</w>": 5612,
  "johor</w>": 34750,
  "signalling</w>": 48426,
  "miley": 25336,
  "agram</w>": 2447,
  "construc": 13321,
  "seri</w>": 37509,
  "whitehouse</w>": 20776,
  "ened</w>": 2494,
  "butler": 35867,
  "politic": 33333,
  "ife": 41172,
  "ceasefire</w>": 38291,
  ">>": 8270,
  "oven": 44620,
  "recognised</w>": 20986,
  "water</w>": 1573,
  "macar": 21558,
  "ðŁĴªðŁı¾</w>": 39398,
  "maureen</w>": 31723,
  "cash</w>": 5131,
  "prestige</w>": 29328,
  "sheva</w>": 45132,
  "techno": 2599,
  "childrens": 31551,
  "preserved</w>": 23161,
  "slowdown</w>": 38421,
  "appreciates</w>": 36573,
  "adukone</w>": 30511,
  "rooster": 46263,
  "hertz</w>": 49383,
  "taxi": 25160,
  "ldnt</w>": 21690,
  "csi</w>": 28070,
  "tutu</w>": 35845,
  "stimulate</w>": 42380,
  "bass</w>": 5992,
  "proms</w>": 37759,
  "dential</w>": 5459,
  "annoy</w>": 45138,
  "originally</w>": 12849,
  "satisfied</w>": 18101,
  "ply": 17249,
  "hypo": 10252,
  "whimsical</w>": 42282,
  "inee</w>": 7986,
  "ye</w>": 4582,
  "uae</w>": 9752,
  "sic</w>": 1118,
  "metaboli": 25573,
  "'d</w>": 1896,
  "auction": 48160,
  "px</w>": 10262,
  "ough": 4204,
  "agi": 24036,
  "scrapbook</w>": 48733,
  "nodapl</w>": 39079,
  "psori": 44688,
  "ar": 516,
  "crucial</w>": 12396,
  "floor": 23657,
  "recital</w>": 23457,
  "dysle": 33681,
  "doubled</w>": 24948,
  "exceeds</w>": 49353,
  "chained</w>": 34402,
  "ę</w>": 469,
  "exemp": 28602,
  "jama</w>": 35366,
  "classics</w>": 10634,
  "paw": 14009,
  "lucent</w>": 41552,
  "fossil</w>": 15202,
  "capped</w>": 24659,
  "moonlight</w>": 20001,
  "behaviour</w>": 14655,
  "bret</w>": 32548,
  "settles</w>": 41498,
  "waterproof</w>": 17613,
  "setup</w>": 11092,
  "envel": 20052,
  "confessions</w>": 29404,
  "scenter</w>": 23059,
  "transporting</w>": 42259,
  "cure": 36758,
  "baby</w>": 1794,
  "maniacs</w>": 41444,
  "ousy</w>": 28302,
  "ĸ</w>": 500,
  "gamification</w>": 48908,
  "È": 132,
  "anthropology</w>": 32407,
  "chuk": 25878,
  "quet</w>": 8513,
  "attended</w>": 8140,
  "thinks</w>": 6109,
  "tball</w>": 1467,
  "newfoundland</w>": 28079,
  "morrissey</w>": 30040,
  "stable": 44427,
  "syd</w>": 22504,
  "lex</w>": 9658,
  "sb</w>": 4977,
  "anton</w>": 19644,
  "meta</w>": 22701,
  "onedirection</w>": 16245,
  "colosse": 48142,
  "rusher</w>": 48745,
  "ingredi": 9272,
  "issa</w>": 7560,
  "monarch": 27235,
  "bongo</w>": 47519,
  "makeshift</w>": 43274,
  "luxembourg</w>": 23949,
  "mukherjee</w>": 37862,
  "sneakpeek</w>": 47831,
  "leaving</w>": 5216,
  "jojo": 41484,
  "Ġ</w>": 476,
  "clues</w>": 23764,
  "huff</w>": 44999,
  "hardest</w>": 15258,
  "cascades</w>": 46454,
  "shrews": 26411,
  "islamist</w>": 38798,
  "arora</w>": 31897,
  "mke</w>": 36642,
  "graf": 46478,
  "sharapo": 36489,
  "jab</w>": 9439,
  "serious</w>": 4770,
  "misuse</w>": 40970,
  "alluarjun</w>": 39333,
  "dyou": 11484,
  "brewer</w>": 20756,
  "takeme": 41748,
  "pillow": 42237,
  "pied</w>": 12713,
  "viet": 17558,
  "competitive</w>": 10687,
  "guesses</w>": 30623,
  "alkal": 33450,
  "charan</w>": 31851,
  "ultra</w>": 8118,
  "ddr</w>": 26027,
  "ðŁİĪ": 16142,
  "naz</w>": 35534,
  "magnu": 45198,
  "scorsese</w>": 45975,
  "organizer</w>": 23905,
  "electric": 19547,
  "baddest</w>": 38112,
  "fric": 18981,
  "ati": 591,
  "evelyn</w>": 26687,
  "ening</w>": 1133,
  "li</w>": 4250,
  "linkedin</w>": 16302,
  "additional</w>": 10666,
  "procurement</w>": 23733,
  "homeof": 48856,
  "compati": 17295,
  "major</w>": 3350,
  "eo": 16054,
  "thole</w>": 31029,
  "amit": 15083,
  "dev": 2797,
  "~~": 11461,
  "snowstorm</w>": 38777,
  "miranda</w>": 17590,
  "sundaymotivation</w>": 46227,
  "herb</w>": 15302,
  "topping</w>": 21071,
  "permit</w>": 21950,
  "influential</w>": 17553,
  "oppre": 17341,
  "realist</w>": 30248,
  "dietrich</w>": 47005,
  "ennedy</w>": 46266,
  "divine": 46919,
  "npr</w>": 24078,
  "summer": 5500,
  "sped</w>": 38813,
  "coventry</w>": 18007,
  "sacrifice</w>": 12556,
  "draws</w>": 12043,
  "reference</w>": 10214,
  "brink": 39296,
  "allan": 36552,
  "ours</w>": 1491,
  "affirm": 42711,
  "happening</w>": 4284,
  "womeninscience</w>": 41343,
  "cayenne</w>": 43650,
  "pbb</w>": 40589,
  "het</w>": 19678,
  "chine": 4013,
  "emerged</w>": 26425,
  "tried</w>": 4554,
  "official": 5768,
  "americans</w>": 6676,
  "bala</w>": 20291,
  "zzled</w>": 39075,
  "tight</w>": 9123,
  "zombi": 29452,
  "sfield</w>": 11801,
  "whipped</w>": 22323,
  "suf": 21204,
  "shipwreck</w>": 48878,
  "îĢ": 36288,
  "decal</w>": 26678,
  "conn</w>": 20329,
  "easport": 42251,
  "fairway</w>": 44022,
  "duf": 38713,
  "ingrid</w>": 33496,
  "giant</w>": 4687,
  "debuting</w>": 34817,
  "macedonia</w>": 27071,
  "choice": 23857,
  "productions</w>": 14166,
  "estonia</w>": 26260,
  "permits</w>": 33267,
  "weird</w>": 5613,
  "az": 854,
  "bj": 4592,
  "nederland</w>": 49058,
  "hoodie</w>": 13444,
  "sparta</w>": 38401,
  "ocean</w>": 4918,
  "kil": 4912,
  "dry</w>": 4501,
  "charismatic</w>": 37205,
  "fier</w>": 10598,
  "wednesdaymotivation</w>": 37860,
  "pilgrims</w>": 31370,
  "byte</w>": 42798,
  "chc</w>": 36233,
  "loe</w>": 25484,
  "danielle</w>": 15292,
  "dari": 16292,
  "ðŁĳįðŁı½</w>": 43722,
  "fuse</w>": 23386,
  "agn": 36474,
  "suspected</w>": 15579,
  "bacter": 11814,
  "ofer": 47322,
  "scarcity</w>": 45812,
  "eindhoven</w>": 47172,
  "chey</w>": 31208,
  "communic": 4784,
  "fang": 14269,
  "dubrov": 46709,
  "apprentices</w>": 38252,
  "deadline</w>": 8458,
  "consumed</w>": 29653,
  "!.</w>": 22517,
  "francois</w>": 29317,
  "tuk</w>": 14993,
  "chick": 3170,
  "portland": 38366,
  "local": 9202,
  "diabe": 19167,
  "prakash": 43708,
  "evo</w>": 13169,
  "nine": 16213,
  "glit": 21079,
  "lips</w>": 8847,
  "arine</w>": 29586,
  "hock": 34914,
  "cke</w>": 40989,
  "gamedev</w>": 7544,
  "mindanao</w>": 44228,
  "lesnar</w>": 42223,
  "emu": 48149,
  "holland</w>": 9978,
  "weightlifting</w>": 36164,
  "cise</w>": 19657,
  "dales</w>": 29031,
  "ajes</w>": 38791,
  "trot</w>": 30453,
  "shatter</w>": 45008,
  "write": 28874,
  "nobel": 33742,
  "orphe": 39186,
  "1": 16,
  "paulo": 48002,
  "finished</w>": 3078,
  "elive</w>": 23505,
  "ruben": 44058,
  "gmb</w>": 31799,
  "diplo</w>": 38115,
  "pete</w>": 8571,
  "relying</w>": 42168,
  "humble": 38703,
  "chinese</w>": 4271,
  "pino</w>": 36633,
  "forsy": 29629,
  "beetle</w>": 16534,
  "orac": 24673,
  "dunlop</w>": 34753,
  "ðŁĵº:</w>": 29728,
  "cooper</w>": 8133,
  "vue": 43915,
  "lean</w>": 8208,
  "steria</w>": 38804,
  "obsi": 47323,
  "carrie": 30334,
  "cypress</w>": 25347,
  "karnat": 13994,
  "machine</w>": 4169,
  "oux</w>": 14228,
  "utilizing</w>": 40212,
  "canada</w>": 2698,
  "colon</w>": 29050,
  "roblo": 27481,
  "chaotic</w>": 33501,
  "passover</w>": 38426,
  "splay</w>": 3169,
  "?#</w>": 24018,
  "barney</w>": 24563,
  "eleanor</w>": 18604,
  "companies</w>": 5361,
  "à¹Ħà¸": 31718,
  "cele": 1314,
  "dimes</w>": 44888,
  "hugh": 8723,
  "adi</w>": 8779,
  "mosquito</w>": 25083,
  "fra</w>": 15644,
  "liking</w>": 16810,
  "southern</w>": 5036,
  "chiroprac": 25987,
  "hra": 21320,
  "iner</w>": 5155,
  "inging</w>": 4066,
  "bookings</w>": 18345,
  "worldo": 41698,
  "pone</w>": 32183,
  "ffice</w>": 26044,
  "tommy": 16573,
  "beren": 33654,
  "superst": 38202,
  "air</w>": 1922,
  "honorary</w>": 15675,
  "chaz": 47815,
  "cuba</w>": 11576,
  "mckenzie</w>": 25502,
  "stormed</w>": 45939,
  "encoun": 17309,
  "digi": 15627,
  "march</w>": 2227,
  "seb": 35766,
  "gard": 7751,
  "orm</w>": 38464,
  "jaan</w>": 25052,
  "yc</w>": 11931,
  "tunein</w>": 16809,
  "instability</w>": 41377,
  "nomore": 35126,
  "lu": 664,
  "wits</w>": 30938,
  "loveyou": 39226,
  "upbeat</w>": 39201,
  "marais</w>": 47913,
  "photo</w>": 1125,
  "dinner</w>": 2571,
  "colum": 4164,
  "ðŁİĢ</w>": 20151,
  "dazzling</w>": 28821,
  "cao</w>": 29207,
  "pakistan": 10713,
  "eduardo</w>": 30604,
  "bat": 2121,
  "imrankhanpti</w>": 26688,
  "omile</w>": 46915,
  "ride</w>": 2994,
  "slain</w>": 35972,
  "bav": 21075,
  "centime": 48687,
  "advertising</w>": 8158,
  "ãģĦ</w>": 38850,
  "carolyn</w>": 25825,
  "grader</w>": 23930,
  "seventh</w>": 17568,
  "costly</w>": 30170,
  "naire</w>": 48892,
  "shie</w>": 26638,
  "badlands</w>": 43192,
  "reen": 21638,
  "poland</w>": 9834,
  "kiri</w>": 45826,
  "directing</w>": 21817,
  "aqu": 4458,
  "outdoor</w>": 6368,
  "cited</w>": 25069,
  "ethel</w>": 45921,
  "gree": 9987,
  "yummy</w>": 7687,
  "lcfc</w>": 25339,
  "macys</w>": 47652,
  "tesco</w>": 15434,
  "mitted</w>": 10307,
  "tered": 49272,
  "essex</w>": 11623,
  "pani</w>": 36092,
  "ðŁĲĿ</w>": 20111,
  "winewednesday</w>": 35447,
  "fighton</w>": 45578,
  "apric": 25923,
  "other</w>": 1010,
  "topics</w>": 11916,
  "committed</w>": 7907,
  "vacant</w>": 25262,
  "troopers</w>": 23576,
  "emabiggest": 23101,
  "primark</w>": 48329,
  "aar</w>": 13234,
  "gaz": 4837,
  "collins</w>": 8684,
  "vn</w>": 25076,
  "yuh</w>": 42547,
  "shd</w>": 37729,
  "deliciousness</w>": 42819,
  "dumpster</w>": 45467,
  "eds</w>": 1941,
  "rightly</w>": 42669,
  "ghting</w>": 3019,
  "blackberry</w>": 16470,
  "basketball": 40023,
  "spread</w>": 5284,
  "stargate</w>": 41099,
  "regulat": 14575,
  "swild</w>": 38696,
  "gp": 19329,
  "named</w>": 3194,
  "looks</w>": 1606,
  "aweed</w>": 29724,
  "subtitles</w>": 39479,
  "aste</w>": 25579,
  "arities</w>": 31069,
  "condem": 13287,
  "wrexham</w>": 34479,
  "sailing</w>": 11003,
  "shen</w>": 31098,
  "ballo": 8871,
  "scanning</w>": 24092,
  "smash": 17258,
  "wvu</w>": 25879,
  "western": 17079,
  "fineartamerica</w>": 7724,
  "milwau": 13452,
  "triu": 14782,
  "meat": 10805,
  "ice": 2739,
  "muppets</w>": 40187,
  "uts</w>": 11740,
  "flagstaff</w>": 40406,
  "santiago</w>": 16568,
  "houses</w>": 7791,
  "musi": 15628,
  "ife</w>": 19590,
  "bastille</w>": 41874,
  "yachts</w>": 29260,
  "dribb": 42153,
  "soothe</w>": 44424,
  "blac": 21008,
  "cruz</w>": 8403,
  "gwen</w>": 24182,
  "conventions</w>": 41404,
  "primary": 35024,
  "culturally</w>": 36783,
  "dcc</w>": 33747,
  "lakhs</w>": 37985,
  "stereo": 15992,
  "kiki</w>": 23962,
  "logistics</w>": 14755,
  "ffers</w>": 32163,
  "firearms</w>": 23960,
  "cargo</w>": 12490,
  "Ñģ": 23669,
  "aau</w>": 35426,
  "boko</w>": 30929,
  "bble": 26570,
  "studies</w>": 6426,
  "lali": 21726,
  "threats</w>": 12766,
  "mit": 3303,
  "eureka</w>": 31686,
  "maced": 21102,
  "virtue</w>": 26860,
  "ouses</w>": 33666,
  "southgate</w>": 47262,
  "bbcnews</w>": 29370,
  "suggesti": 15033,
  "pan</w>": 7437,
  "mahesh": 33448,
  "mylife</w>": 30537,
  "lamborgh": 18709,
  "biking</w>": 19157,
  "ny": 1383,
  "grape</w>": 15959,
  "tropic": 21794,
  "nickimin": 27390,
  "hawai": 15800,
  "printing</w>": 7369,
  "roast</w>": 11404,
  "nlp</w>": 35680,
  "cous</w>": 48397,
  "gto</w>": 39071,
  "melville</w>": 46030,
  "action": 12493,
  "aura</w>": 27728,
  "cyclones</w>": 34669,
  "hardware</w>": 11957,
  "dain</w>": 28315,
  "coastline</w>": 27959,
  "accusations</w>": 33615,
  "ahhhh</w>": 21054,
  "bales</w>": 42879,
  "gaf": 21354,
  "ose</w>": 22541,
  "bic</w>": 10675,
  "ä»": 37743,
  "rhon": 25882,
  "belo</w>": 41649,
  "coolest</w>": 10566,
  "bwfc</w>": 40918,
  "fuji": 15573,
  "???</w>": 3824,
  "odessa</w>": 43574,
  "gael</w>": 35663,
  "crazy": 17540,
  "core</w>": 5000,
  "mcfar": 29020,
  "glycer": 48914,
  "children": 11101,
  "suit</w>": 3940,
  "rim</w>": 12199,
  "duplic": 28992,
  "clones</w>": 48047,
  "riverside</w>": 15809,
  "koz": 29598,
  "hump</w>": 24529,
  "idk</w>": 8972,
  "confident</w>": 12365,
  "corrosion</w>": 39191,
  "nearing</w>": 26571,
  "jimenez</w>": 35947,
  "airport</w>": 3259,
  "qm</w>": 42148,
  "wineoclock</w>": 43846,
  "state</w>": 1295,
  "policeman</w>": 37713,
  "blaster</w>": 36341,
  "expen": 7216,
  "proactive</w>": 33364,
  "emmy</w>": 17089,
  "brittany": 38187,
  "hundred</w>": 11898,
  "fraser": 39082,
  "nant</w>": 22526,
  "hoe</w>": 11262,
  "lifestyle": 46512,
  "twine</w>": 42775,
  "resistant</w>": 17542,
  "puni": 11479,
  "jlo</w>": 31017,
  "hacks</w>": 19965,
  "disin": 19484,
  "alay": 30289,
  "T": 51,
  "psychop": 30112,
  "congratulation</w>": 24751,
  "nax": 38299,
  "episode</w>": 2965,
  "inspections</w>": 39513,
  "templates</w>": 30498,
  "websites</w>": 19278,
  "lifestyles</w>": 48521,
  "donghae</w>": 28945,
  "ji": 3252,
  "ayesha</w>": 46570,
  "millar</w>": 41851,
  "advantage</w>": 8573,
  "middleweight</w>": 35829,
  "bulldo": 37675,
  "ironic</w>": 24518,
  "embe": 46041,
  "surround</w>": 22999,
  "bbe</w>": 37559,
  "supportindiefilm</w>": 43976,
  "click</w>": 3585,
  "barrels</w>": 22059,
  "pediatric": 48431,
  "holiday</w>": 2878,
  "missionary</w>": 27915,
  "refuge</w>": 17432,
  "layla</w>": 45050,
  "annon</w>": 26385,
  "daft</w>": 36347,
  "insulated</w>": 42051,
  "yz": 37579,
  "dons</w>": 22127,
  "resumes</w>": 30268,
  "quay": 40276,
  "palawan</w>": 48202,
  "bhan": 27356,
  "ima": 2414,
  "prehistoric</w>": 32750,
  "inscription</w>": 41127,
  "stani</w>": 38228,
  "eyang</w>": 28915,
  "brendan</w>": 15414,
  "mutant</w>": 28384,
  "serbian</w>": 33687,
  "helsinki</w>": 19626,
  "ptic</w>": 20670,
  "quizz": 35041,
  "beasts</w>": 21771,
  "akan": 43678,
  "ðŁ¤ĺðŁı»</w>": 30891,
  "crabs</w>": 30908,
  "bridget</w>": 27073,
  "erton</w>": 26245,
  "undertaking</w>": 49067,
  "ubis": 28248,
  "steady</w>": 12937,
  "ar</w>": 625,
  "puc": 48779,
  "mble": 20310,
  "moud</w>": 37698,
  "touchdown</w>": 18664,
  "flashback": 14616,
  "incub": 24587,
  "ranger": 31472,
  "âĺºï¸ı": 11506,
  "aubrey</w>": 34110,
  "caregi": 22042,
  "snatch</w>": 35302,
  "cole</w>": 8166,
  "wcw</w>": 9041,
  "slu": 7224,
  "newjersey</w>": 32621,
  "riots</w>": 24844,
  "qanon</w>": 19182,
  "greenwood</w>": 25782,
  "device</w>": 8163,
  "wood": 3269,
  "hottie</w>": 22804,
  "ii": 5103,
  "correctly</w>": 15359,
  "batteries</w>": 16666,
  "borough": 22761,
  "admission</w>": 11315,
  "groupe</w>": 47654,
  "ðŁĴ¸</w>": 25957,
  "cheating</w>": 19722,
  "cream": 23184,
  "corrected</w>": 35628,
  "jenna</w>": 17125,
  "macro</w>": 16626,
  "å": 161,
  "retires</w>": 29060,
  "liquidity</w>": 42812,
  "collingwood</w>": 45873,
  "famously</w>": 44505,
  "giac": 35444,
  "busy</w>": 4354,
  "jom": 32152,
  "methyl": 48999,
  "texans</w>": 17580,
  "parisagreement</w>": 47405,
  "ply</w>": 28705,
  "ðŁİµ</w>": 14946,
  "elearning</w>": 29969,
  "'ve</w>": 1200,
  "awx</w>": 28385,
  "rotterdam</w>": 23422,
  "osi</w>": 17636,
  "ushi</w>": 47734,
  "creative</w>": 4450,
  "zap": 24134,
  "effect</w>": 5436,
  "Ô": 144,
  "istandwith": 33820,
  "battle": 7344,
  "dura</w>": 47382,
  "ðŁĺ²</w>": 24620,
  "mr": 3139,
  "hehe</w>": 10658,
  "lps</w>": 32094,
  "pompe": 18352,
  "icide</w>": 6558,
  "workflow</w>": 28502,
  "scanner</w>": 24185,
  "distinguished</w>": 16513,
  "sphin": 39237,
  "unit": 28522,
  "ı": 237,
  "ka": 1595,
  "beirut</w>": 22352,
  "oughton</w>": 36860,
  "elmer</w>": 45958,
  "ðŁĳıðŁı½": 40796,
  "conservancy</w>": 46729,
  "chico</w>": 30379,
  "atle": 21170,
  "hunting</w>": 7507,
  "stories</w>": 3784,
  "extraordinaire</w>": 30909,
  "nun</w>": 28540,
  "grammar</w>": 16077,
  "sical</w>": 33875,
  "crats</w>": 43056,
  "fiddle</w>": 35968,
  "wcvb</w>": 32709,
  "stability</w>": 16716,
  "ppl</w>": 6758,
  "wakeup</w>": 35380,
  "limpopo</w>": 47175,
  "gundam</w>": 26087,
  "interviews</w>": 9910,
  "americani": 39726,
  "repur": 41852,
  "vino</w>": 14509,
  "gdp</w>": 17100,
  "fanta": 2703,
  "weir": 11299,
  "mistletoe</w>": 48569,
  "bunting</w>": 30695,
  "comprehend</w>": 48230,
  "seattle": 24388,
  "heaton</w>": 34557,
  "pocaly": 37987,
  "aleague</w>": 38909,
  "continental</w>": 14089,
  "achs</w>": 41195,
  "meadows</w>": 17178,
  "conte": 15402,
  "carrick</w>": 44052,
  "guest</w>": 3781,
  "metroid</w>": 39957,
  "awd</w>": 34846,
  "alpha</w>": 8624,
  "garty</w>": 46383,
  "hem</w>": 11148,
  "rally": 18882,
  "spann</w>": 25323,
  "french": 13118,
  "kidnap</w>": 45100,
  "khi": 39062,
  "knocking</w>": 20380,
  "boxer</w>": 15363,
  "ticon</w>": 45996,
  "kang</w>": 20789,
  "scy": 27471,
  "ca</w>": 1684,
  "adu": 16882,
  "swallowed</w>": 46956,
  "hunk</w>": 33912,
  "cinnam": 12768,
  "abit</w>": 48668,
  "sna": 4032,
  "arresting</w>": 43930,
  "delays</w>": 11232,
  "athing</w>": 36069,
  "à¥ģ</w>": 39653,
  "fat": 4751,
  "stamped</w>": 38356,
  "fotogra": 23687,
  "aho</w>": 38444,
  "fics</w>": 42505,
  "uro</w>": 5925,
  "serenity</w>": 24187,
  "depp</w>": 24941,
  "doug</w>": 10758,
  "nani</w>": 27980,
  "upwards</w>": 34915,
  "midsummer</w>": 35234,
  "kili": 24386,
  "mous</w>": 17425,
  "circa</w>": 10411,
  "ãģ®": 21575,
  "mnf</w>": 41105,
  "hong</w>": 8598,
  "tryouts</w>": 28053,
  "kindness</w>": 10614,
  "expert</w>": 6284,
  "moran</w>": 21557,
  "lifespan</w>": 49257,
  "modern</w>": 4077,
  "regrann</w>": 48802,
  "waltdisneyworld</w>": 36505,
  "arca": 25189,
  "biome": 26218,
  "mandi": 38961,
  ";;": 34824,
  "laura</w>": 7763,
  "ï¸ıâĥ£</w>": 4603,
  "à</w>": 412,
  "middleeast</w>": 32783,
  "piyush": 36191,
  "mountain</w>": 3965,
  "conge": 20013,
  "namibia</w>": 23731,
  "honorees</w>": 43012,
  "lankan</w>": 40531,
  "comp": 2561,
  "meaningful</w>": 17480,
  "shine</w>": 3780,
  "kkr</w>": 40855,
  "colchester</w>": 31715,
  "shp</w>": 38341,
  "calculator</w>": 26093,
  "wot</w>": 24863,
  "orice</w>": 41341,
  "prizes</w>": 9268,
  "extrac": 18550,
  "infuri": 48461,
  "thofjuly</w>": 21613,
  "decor</w>": 6928,
  "tk</w>": 20676,
  "sburg</w>": 7390,
  "kj": 27385,
  "eter</w>": 17007,
  "pals</w>": 11043,
  "strath": 21997,
  "abh</w>": 33649,
  "nifty</w>": 25604,
  "botanical</w>": 21026,
  "pub": 20720,
  "papua</w>": 32629,
  "shani": 46665,
  "lerosis</w>": 35455,
  "igers": 40755,
  "adc</w>": 38201,
  "chess": 27170,
  "when</w>": 827,
  "Ā": 188,
  "tmrw</w>": 16496,
  "jc": 14991,
  "fluffy</w>": 17054,
  "maa": 42774,
  "undisclosed</w>": 39334,
  "passages</w>": 48937,
  "ayu</w>": 40769,
  "research</w>": 2379,
  "rood</w>": 38007,
  "loi</w>": 35128,
  "yogur": 16137,
  "atic": 20248,
  "dayof": 16272,
  "philosop": 20349,
  "halo": 33331,
  "pare": 18202,
  "awakening</w>": 17017,
  "kau</w>": 36895,
  "strokes</w>": 26595,
  "tailgate</w>": 23168,
  "wallpapers</w>": 29841,
  "birthdays</w>": 17954,
  "butter</w>": 6952,
  "gusta</w>": 44196,
  "dries</w>": 33857,
  "xrp</w>": 26965,
  "trumps</w>": 29793,
  "bottles</w>": 9754,
  "gaming</w>": 4017,
  "melvin</w>": 31544,
  "shopp": 38486,
  "parma</w>": 36077,
  "rahim</w>": 24152,
  "virtuoso</w>": 47027,
  "potatoes</w>": 11567,
  "Ă</w>": 446,
  "bei</w>": 23227,
  "challenge": 29462,
  "mqm</w>": 24687,
  "cdn</w>": 26802,
  "eclub</w>": 38983,
  "elit": 40882,
  "conceptions</w>": 40307,
  "alised</w>": 25099,
  "hardworkpaysoff</w>": 49193,
  "composites</w>": 45395,
  "buddies</w>": 14543,
  "auth": 2381,
  "vanguard</w>": 27916,
  "examined</w>": 44004,
  "parry</w>": 40604,
  "âĨĵ</w>": 41603,
  "decatur</w>": 38540,
  "exam": 4428,
  "skynews</w>": 40977,
  "barca</w>": 22942,
  "oldham</w>": 29929,
  "shadowing</w>": 46092,
  "shorten</w>": 41711,
  "kristen": 28881,
  "bobs</w>": 45533,
  "socialmedi": 23813,
  "sarawak</w>": 47331,
  "firework</w>": 40750,
  "astic</w>": 15876,
  "sold</w>": 3939,
  "wha": 18994,
  "crumb": 48327,
  "cork</w>": 10376,
  "vanishing</w>": 48296,
  "à¸Ļ": 17474,
  "attle</w>": 5030,
  "seventeen</w>": 19337,
  "soci": 1720,
  "freel": 14174,
  "three": 21615,
  "healthy</w>": 3782,
  "Â·</w>": 14844,
  "barry": 18028,
  "better": 10320,
  "syd": 4525,
  "penultimate</w>": 36553,
  "cairn</w>": 42467,
  "charlotte</w>": 7871,
  "strengthen</w>": 16318,
  "increasing</w>": 10270,
  "buk</w>": 24317,
  "seung</w>": 33711,
  "ruth</w>": 12029,
  "discomfort</w>": 48054,
  "portuguese</w>": 18019,
  "à¤¸</w>": 28505,
  "leeminho</w>": 37831,
  "dragon": 9187,
  "ven</w>": 1638,
  "smb</w>": 30446,
  "evo": 17962,
  ":]</w>": 43486,
  "entren": 46959,
  "bling": 39764,
  "bos": 14885,
  "societal</w>": 40058,
  "lakel": 26133,
  "nino</w>": 25633,
  "thephotohour</w>": 18607,
  "she": 1729,
  "csi": 41750,
  "rstats</w>": 38700,
  "....@</w>": 29790,
  "\"âĢĶ</w>": 41151,
  "iah</w>": 35052,
  "ðŁĴļ": 8102,
  "station</w>": 2631,
  "sumptuous</w>": 47354,
  "faction</w>": 14629,
  "pembroke": 36702,
  "cop": 3196,
  "febru": 4202,
  "aline</w>": 21799,
  "technological</w>": 23068,
  "maher</w>": 29826,
  "spelt</w>": 38316,
  "journey</w>": 3749,
  "psychology</w>": 12352,
  "veggies</w>": 16767,
  "mariska</w>": 44703,
  "atum</w>": 48295,
  "pave</w>": 37107,
  "comes</w>": 2091,
  "admins</w>": 49297,
  "yotes</w>": 46157,
  "advis": 4634,
  "glou": 15989,
  "functions</w>": 18001,
  "nye</w>": 13416,
  "teaser</w>": 8982,
  "nanaimo</w>": 40518,
  "mikha": 30999,
  "candidates</w>": 8619,
  "banger</w>": 24872,
  "sheffiel": 26940,
  "hopper</w>": 21748,
  "release": 29100,
  "oche</w>": 33045,
  "lone": 22220,
  "jamesbond</w>": 44704,
  "metallic</w>": 17257,
  "sharp</w>": 8157,
  "tl": 14325,
  "checkers</w>": 48181,
  "elle": 12818,
  "kettle</w>": 24303,
  "hibition</w>": 24658,
  "iti</w>": 6165,
  "notes</w>": 5795,
  "iority</w>": 46016,
  "mound</w>": 21414,
  "obst": 29398,
  "cree": 33961,
  "tering</w>": 7929,
  "ðŁĳ¶": 26187,
  "enamel</w>": 22746,
  "sourdough</w>": 29921,
  "delavin</w>": 40776,
  "hg": 23986,
  "dax</w>": 29458,
  "peugeot</w>": 24129,
  "squad</w>": 4234,
  "singh</w>": 5715,
  "ette</w>": 5212,
  "hati</w>": 26045,
  "atown</w>": 24000,
  "pearl</w>": 8560,
  "acf</w>": 38389,
  "sla</w>": 26707,
  "launches</w>": 7023,
  "necess": 6961,
  "sharia</w>": 37244,
  "dipping</w>": 33544,
  "É</w>": 389,
  "thri": 8713,
  "chew": 32645,
  "effec": 3943,
  "assisted</w>": 18095,
  "haun": 9676,
  "salt": 12763,
  "hannel</w>": 43477,
  "gratis</w>": 33638,
  "reversi": 31601,
  "mayors</w>": 28501,
  "humber</w>": 38063,
  "printer</w>": 14521,
  "kins": 31060,
  "less</w>": 1285,
  "offici": 1401,
  "sil</w>": 8315,
  "else</w>": 3344,
  "delavin": 40477,
  "nodejs</w>": 39262,
  "jason</w>": 5395,
  "X</w>": 311,
  "sie</w>": 5685,
  "ecz": 43530,
  "man</w>": 786,
  "maintaining</w>": 21964,
  "pl": 712,
  "trucking</w>": 26208,
  "civilization</w>": 22503,
  "rage</w>": 8593,
  "roma": 44134,
  "fitfam</w>": 20662,
  "mandel": 34960,
  "dahl</w>": 22621,
  "bellletstalk</w>": 42695,
  "afterwards</w>": 23911,
  "ster</w>": 881,
  "jeon</w>": 43337,
  "spun</w>": 32852,
  "behind</w>": 2403,
  "finer</w>": 36681,
  "steward</w>": 43355,
  "vach": 46211,
  "seaf": 9336,
  "ing": 653,
  "menstru": 28345,
  "mooney</w>": 37942,
  "mdt</w>": 40822,
  "terri</w>": 36722,
  "ufo</w>": 19443,
  "moured</w>": 29555,
  "giz": 29237,
  "raccoon</w>": 29516,
  "ssa</w>": 6088,
  "onwards</w>": 20682,
  "criterion</w>": 43841,
  "art": 1486,
  "eileen</w>": 31468,
  "sst</w>": 40396,
  "words</w>": 2709,
  "wicz</w>": 30121,
  "ðŁĳıðŁĳı": 10356,
  "ðŁĮĪ</w>": 13042,
  "members</w>": 2567,
  "bearer</w>": 30686,
  "if": 8063,
  "zies</w>": 38001,
  "town": 4068,
  "escal": 15902,
  "ae": 5548,
  "cru": 1815,
  "dwell</w>": 18755,
  "hove</w>": 29674,
  "christoph</w>": 47844,
  "halle": 27763,
  "word</w>": 2653,
  "embark</w>": 33953,
  "emc</w>": 31602,
  "santa": 22175,
  "malaysian</w>": 21136,
  "eving</w>": 24729,
  "europeans</w>": 37082,
  "category</w>": 9432,
  "tana</w>": 21396,
  "nitro</w>": 30726,
  "ðŁĺĺ": 4240,
  "villages</w>": 17621,
  "kand": 17478,
  "elevation</w>": 23826,
  "strack</w>": 46861,
  "cohen</w>": 13381,
  "pur": 1727,
  "romper</w>": 43699,
  "transgender</w>": 17732,
  "atuesday</w>": 34841,
  "kcon</w>": 39970,
  "size</w>": 3235,
  "friendly": 44612,
  "sls</w>": 33651,
  "pc": 6782,
  "morgen</w>": 35106,
  "endeavour</w>": 38035,
  "foodtruck</w>": 47682,
  "perk</w>": 33424,
  "shameful</w>": 28283,
  "eroy</w>": 36461,
  "sexy": 21019,
  "advise</w>": 25962,
  "capecod</w>": 41339,
  "preaching</w>": 23642,
  "shipping</w>": 5721,
  "immature</w>": 45531,
  "disrespect</w>": 34055,
  "kitty</w>": 8417,
  "longhorn</w>": 41047,
  "expresses</w>": 31931,
  "prank</w>": 23654,
  "samantha</w>": 15466,
  "mitchell": 39339,
  "pull</w>": 6857,
  "baseball</w>": 3470,
  "voltage</w>": 23118,
  "satur": 1634,
  "couture</w>": 14808,
  "fhs</w>": 45094,
  "packard</w>": 46421,
  "doit": 32272,
  "bla</w>": 19630,
  "myan": 13761,
  "reinvent</w>": 38171,
  "braw": 37871,
  "obligations</w>": 38232,
  "myr": 20272,
  "berman</w>": 21514,
  "ctor</w>": 8108,
  "references</w>": 24009,
  "astronomer</w>": 40036,
  "weareall": 45980,
  "advertisement</w>": 18713,
  "crocker</w>": 47843,
  "map</w>": 3923,
  "ðŁİħ</w>": 24276,
  "shet": 15850,
  "disco</w>": 11964,
  "ions</w>": 26289,
  "xvi</w>": 44031,
  "watfordfc</w>": 37328,
  "mombasa</w>": 40340,
  "waking</w>": 13025,
  "charlottesville</w>": 32027,
  "marx</w>": 26001,
  "ozil</w>": 41365,
  "wag</w>": 19177,
  "contra</w>": 38620,
  "diva</w>": 13605,
  "commemorates</w>": 45149,
  "enroll</w>": 30366,
  "aso</w>": 27932,
  "stakeholders</w>": 22968,
  "multiple</w>": 6470,
  "bermuda</w>": 24644,
  "uy": 31929,
  "scountry</w>": 40432,
  "calculate</w>": 37656,
  "ror": 8668,
  "cko</w>": 28818,
  "warmer</w>": 14328,
  "vely</w>": 1708,
  "utsa</w>": 37528,
  "ðŁĻıðŁı¾</w>": 21979,
  "wein": 29134,
  "agg</w>": 45482,
  "swit": 3726,
  "ðŁĺįðŁĺįðŁĺį": 30614,
  "villas</w>": 28907,
  "svu</w>": 32123,
  "die</w>": 2082,
  "dgers</w>": 8733,
  "streamers</w>": 19937,
  "restling</w>": 30076,
  "note": 10910,
  "arjun": 24565,
  "return": 43042,
  "awson</w>": 36286,
  "tah": 14822,
  "bilingual</w>": 29623,
  "âĢ¦.</w>": 18615,
  "irresi": 31200,
  "couples</w>": 14752,
  "acton</w>": 36697,
  "lisa</w>": 7424,
  "jg</w>": 35138,
  "dob": 29640,
  "vix": 28976,
  "bankrup": 21904,
  "flavour</w>": 17026,
  "tbo</w>": 34255,
  "pinned</w>": 12165,
  "inju": 5006,
  "albany</w>": 17359,
  "mod</w>": 10893,
  "_____</w>": 38803,
  "tol</w>": 32962,
  "tina</w>": 9257,
  "gari</w>": 43080,
  "defamation</w>": 42741,
  "airplanes</w>": 33319,
  "din": 1462,
  "emory</w>": 44274,
  "vos</w>": 16863,
  "ð</w>": 428,
  "scallops</w>": 31430,
  "carrot</w>": 15435,
  "laughed</w>": 16746,
  "believe": 15819,
  "dike</w>": 42683,
  "jas</w>": 17559,
  "lmfaooo</w>": 47658,
  "gs": 25818,
  "commitment</w>": 7770,
  "bicycles</w>": 31326,
  "forage</w>": 46871,
  "paige": 33659,
  "want</w>": 1280,
  "amex</w>": 46390,
  "usc</w>": 14995,
  "foodie": 30762,
  "ccg</w>": 37755,
  "fli": 2472,
  "aig": 27295,
  "lyon</w>": 17176,
  "akshi</w>": 42634,
  "wildatlanticway</w>": 35776,
  "elgin</w>": 31868,
  "woo</w>": 9322,
  "dunkirk</w>": 46928,
  "cleared</w>": 14880,
  "reliance</w>": 27727,
  "celsius</w>": 47057,
  "compensation</w>": 18663,
  "autoshow</w>": 46788,
  "fied</w>": 2853,
  "anger": 32737,
  "chand": 7126,
  "projector</w>": 27816,
  "ktm</w>": 33989,
  "dead</w>": 2747,
  "ditch</w>": 19291,
  "english</w>": 3469,
  "yoshi": 22920,
  "watcher</w>": 35971,
  "autom": 4114,
  "catchers</w>": 39060,
  "slat": 38966,
  "friend": 3017,
  "mav": 25697,
  "ðŁĩª</w>": 12331,
  "rahman</w>": 19680,
  "kebab</w>": 36497,
  "steve</w>": 3803,
  "nak": 9248,
  "aku</w>": 20815,
  "str": 807,
  "however</w>": 8467,
  "byn": 46917,
  "stud": 22368,
  "td": 20578,
  "commissioned</w>": 16565,
  "versail": 29857,
  "ðŁĴĭ</w>": 7417,
  "atas</w>": 30057,
  "soul</w>": 3755,
  "opor": 39650,
  "appet": 21686,
  "unlea": 23893,
  "sustainable</w>": 7078,
  "³</w>": 367,
  "memph": 10285,
  "gained</w>": 14489,
  "audi</w>": 10277,
  "giles</w>": 24802,
  "ðŁİĤ</w>": 10392,
  "infrared</w>": 22867,
  "lynch": 31586,
  "explore": 10405,
  "vito</w>": 36725,
  "eeeee</w>": 26938,
  "real": 2017,
  "kangaroo</w>": 25513,
  "taking</w>": 2019,
  "tec</w>": 11612,
  "panic</w>": 14124,
  "hans": 35172,
  "univ</w>": 14896,
  "stering</w>": 14175,
  "â</w>": 414,
  "mitigate</w>": 42273,
  "baskets</w>": 27787,
  "entom": 31676,
  "reviewers</w>": 48195,
  "Y": 56,
  "moana</w>": 43241,
  "kettle": 41992,
  "settlement</w>": 16494,
  "rys</w>": 21654,
  "nbaf": 30127,
  "lez</w>": 26442,
  "budgeting</w>": 43789,
  "goldenglobes</w>": 26842,
  "fleet": 35922,
  "dyed</w>": 24906,
  "cpr</w>": 25134,
  "dac</w>": 27478,
  "tart</w>": 14120,
  "ðŁį": 2011,
  "gutierrez</w>": 33739,
  "divergent</w>": 36132,
  "tamar": 22901,
  "uruguay</w>": 27931,
  "ideology</w>": 25840,
  "gustav</w>": 37921,
  "vinyl</w>": 5754,
  "samsung</w>": 8115,
  "chakra</w>": 33241,
  "antly</w>": 5265,
  "dictionary</w>": 19699,
  "hatchback</w>": 42348,
  "ilation</w>": 16180,
  "bryant</w>": 12256,
  "timed</w>": 32727,
  "emergency": 44038,
  "advancement</w>": 35437,
  "museumweek</w>": 37996,
  "tee": 12676,
  "studio": 17798,
  "settled</w>": 18310,
  "processed</w>": 23816,
  "tly": 37483,
  "classiccar</w>": 46906,
  "dough": 15785,
  "gmc</w>": 27257,
  "spectac": 7242,
  "|": 91,
  "remarkably</w>": 39087,
  "tac</w>": 22653,
  "âŀĸ</w>": 34902,
  "ll": 1657,
  "agers</w>": 22123,
  "bounce</w>": 14316,
  "ragh": 35642,
  "confis": 36285,
  "kitties</w>": 36013,
  "seag": 15730,
  "otte</w>": 35214,
  "formations</w>": 37715,
  "descent</w>": 19375,
  "dover": 43019,
  "inting</w>": 15571,
  "xen": 15568,
  "clai": 29459,
  "cdt</w>": 18455,
  "yg</w>": 16396,
  "spx</w>": 20584,
  "demonstr": 8579,
  "exec</w>": 15052,
  "partnering</w>": 21182,
  "prince": 9457,
  "accep": 4616,
  "tsb</w>": 45015,
  "escor": 24360,
  "lego</w>": 7849,
  "relessly</w>": 33927,
  "guitar</w>": 5084,
  "ghters</w>": 12994,
  "slugger</w>": 48671,
  "reclaim</w>": 35969,
  "vedere</w>": 45660,
  "fod": 31015,
  "ghee</w>": 34794,
  "hal": 1296,
  "agos</w>": 32657,
  "age": 4758,
  "dolphin": 42963,
  "chevy</w>": 16581,
  "danes</w>": 47477,
  "`": 63,
  "azine</w>": 29140,
  "mera</w>": 20028,
  "fancy": 47622,
  "feller</w>": 29226,
  "follo": 41417,
  "xma": 48805,
  "ceo</w>": 3559,
  "fridges</w>": 40734,
  "kh</w>": 7452,
  "cherno": 35376,
  "hurricane": 24051,
  "alla</w>": 14000,
  "retrospective</w>": 27105,
  "jiu": 43351,
  "turn</w>": 2105,
  "duc</w>": 36446,
  "systematic</w>": 28586,
  "tollywood</w>": 42016,
  "Äĩ</w>": 31719,
  "despicable</w>": 37158,
  "jihad</w>": 29637,
  "beck</w>": 10396,
  "fugitive</w>": 39257,
  "swe</w>": 38070,
  "leo": 24008,
  "(*</w>": 39575,
  "grammy</w>": 15388,
  "perrie</w>": 32691,
  "¬ë": 31736,
  "minted</w>": 49377,
  "asdf": 36857,
  "uru": 16322,
  "livepd</w>": 31899,
  "nutrients</w>": 24668,
  "ait</w>": 40814,
  "au</w>": 2566,
  "craft": 7717,
  "fcofficial</w>": 27805,
  "resolution</w>": 9977,
  "rosso</w>": 33023,
  "armed</w>": 8202,
  "typic": 21648,
  "siers</w>": 35923,
  "par": 699,
  "instant": 38810,
  "pneu": 28714,
  "req</w>": 42411,
  "midwives</w>": 42355,
  "gnocchi</w>": 48299,
  "madame</w>": 23507,
  "gla": 1523,
  "circul": 16618,
  "on": 521,
  "upgrading</w>": 34368,
  "autonomy</w>": 39223,
  "compens": 15172,
  "wheat</w>": 10303,
  "realestate</w>": 6569,
  "sions</w>": 4060,
  "jamming</w>": 25862,
  "dio": 3779,
  "ghc</w>": 42139,
  "curry</w>": 8051,
  "ped</w>": 2966,
  "photoo": 11106,
  "loch": 20188,
  "motherwell</w>": 48104,
  "fanfic</w>": 47243,
  "te</w>": 756,
  "psychiatric</w>": 30578,
  "stem": 24342,
  "myjaps</w>": 47939,
  "erts</w>": 12921,
  "husk": 19246,
  "proje": 48345,
  "beard": 26157,
  "decorate</w>": 23651,
  "mortal</w>": 14680,
  "bannon</w>": 29710,
  "duties</w>": 19603,
  "tts</w>": 11570,
  "leit": 35446,
  "memorable</w>": 13172,
  "urope</w>": 14918,
  "maggie</w>": 14524,
  "renaissance</w>": 16007,
  "kno</w>": 25362,
  "potted</w>": 48581,
  "yesterday</w>": 1926,
  "los</w>": 3087,
  "imperative</w>": 39833,
  "piggy</w>": 28245,
  "omeo</w>": 39844,
  "nationalpark</w>": 33060,
  "rother": 23174,
  "phon</w>": 31115,
  "mals</w>": 25370,
  "reco": 2535,
  "bbcsport</w>": 49321,
  "bolivia</w>": 28628,
  "uncles</w>": 45335,
  "saving": 28498,
  "alth": 23463,
  "avy</w>": 29973,
  "âĢ¼ï¸ı": 15622,
  "realty</w>": 20471,
  "stream": 8659,
  "andy": 9447,
  "atten": 4084,
  "multitasking</w>": 48684,
  "italians</w>": 44744,
  "rakesh</w>": 41083,
  "illas</w>": 23404,
  "chocolat</w>": 44631,
  "inhibit": 32196,
  "beyond</w>": 4432,
  "carina</w>": 44357,
  "aloo</w>": 46187,
  "scoll</w>": 44895,
  "namjoon</w>": 31986,
  "hig": 38108,
  "purchasing</w>": 20718,
  "door</w>": 2489,
  "sided</w>": 21061,
  "bonn</w>": 38969,
  "acl": 47593,
  "tend</w>": 21252,
  "pg": 12476,
  "ê": 166,
  "fman</w>": 25152,
  "repor": 2628,
  "believers</w>": 28434,
  "sub</w>": 7765,
  "amos</w>": 18133,
  "moose</w>": 17338,
  "elaine</w>": 22523,
  "soproud</w>": 44479,
  "tribute</w>": 5493,
  "aaf": 37638,
  "full</w>": 1476,
  "glar</w>": 41702,
  "desires</w>": 27598,
  "protest</w>": 6279,
  "onics</w>": 9779,
  "inged</w>": 30046,
  "instyle</w>": 41321,
  "cnews</w>": 24319,
  "almanac</w>": 41268,
  "pling</w>": 12899,
  "criticism</w>": 17405,
  "source</w>": 3634,
  "hurrican": 36105,
  "spicy</w>": 10915,
  "ðŁĺįðŁĺįðŁĺį</w>": 7703,
  "petit": 36437,
  "yeo</w>": 43830,
  "lexi</w>": 24679,
  "exchanged</w>": 48919,
  "®": 106,
  "))))": 42911,
  "midday</w>": 23390,
  "ðŁĳıðŁĳıðŁĳı</w>": 17254,
  "ciner": 39882,
  "informs</w>": 48440,
  "watchers</w>": 28443,
  "onther": 46563,
  "client</w>": 7467,
  "roanoke</w>": 36587,
  "prose</w>": 28675,
  "nn</w>": 12925,
  "protein</w>": 8088,
  "sears</w>": 26693,
  "bred": 46929,
  "minors</w>": 36789,
  "pine</w>": 7374,
  "sung": 16903,
  "sepul": 47360,
  "piazza</w>": 28496,
  "horror</w>": 5032,
  "pover</w>": 29464,
  "camil": 37745,
  "nikov</w>": 43960,
  "yelling</w>": 26581,
  "vec": 19912,
  "clair": 31441,
  "rein": 9240,
  "alarm</w>": 11321,
  "sper</w>": 15313,
  "ivan</w>": 15689,
  "posure</w>": 35539,
  "lumb": 36231,
  "headaches</w>": 38025,
  "jr</w>": 3605,
  "dison</w>": 19310,
  "initially</w>": 28123,
  "clyde": 39557,
  "vardy</w>": 47371,
  "quotation</w>": 49195,
  "bd</w>": 11165,
  "ller</w>": 7722,
  "simple</w>": 4129,
  "thepeople</w>": 33597,
  "pedestrians</w>": 33895,
  "allu": 20157,
  "âĺħâĺħ": 12681,
  "verma</w>": 41261,
  "poon": 33799,
  "bbhuttozardari</w>": 28135,
  "Ø§ÙĨ": 42773,
  "shored": 33140,
  "teasers</w>": 48990,
  "sushi</w>": 11729,
  "leah</w>": 19308,
  "half</w>": 2349,
  "petrol</w>": 18149,
  "abs": 18431,
  "riba</w>": 44992,
  "kabul</w>": 26160,
  "zac": 25501,
  "flare</w>": 21185,
  "expon": 27905,
  "certainly</w>": 10883,
  "miti": 17857,
  "anew</w>": 47341,
  "bugs</w>": 13850,
  "catchy</w>": 37114,
  "thomson</w>": 24151,
  "johns</w>": 14515,
  "feast": 37963,
  "tree</w>": 2677,
  "brill": 27342,
  "upload</w>": 13968,
  "nephro": 43054,
  "captions</w>": 41878,
  "terriers</w>": 47047,
  "politicians</w>": 12914,
  "novascotia</w>": 34744,
  "dugout</w>": 36831,
  "åľ": 37746,
  "baz</w>": 25268,
  "greeting</w>": 17754,
  "oneteam</w>": 41094,
  "mori</w>": 29514,
  "discs</w>": 29270,
  "ontario</w>": 7436,
  "suggestions</w>": 16052,
  "undefeated</w>": 15326,
  "principles</w>": 13755,
  "summed</w>": 34912,
  "elections</w>": 6949,
  "meri": 17993,
  "ÛĮ</w>": 32703,
  "lool</w>": 33125,
  "ryanair</w>": 43526,
  "ably</w>": 6748,
  "guidelines</w>": 16591,
  "phil": 2821,
  "kuber": 41336,
  "follow": 1964,
  "legendof": 47915,
  "polly</w>": 31204,
  ">>>>></w>": 32972,
  "planner</w>": 18083,
  "hamilton</w>": 7684,
  "robo": 4672,
  "parad": 37143,
  "asap": 24199,
  "lec</w>": 35374,
  "ssen": 39408,
  "licen": 6706,
  "synopsis</w>": 47018,
  "thingy</w>": 36888,
  "berty</w>": 35973,
  "Â¡Â¡</w>": 45505,
  "axel</w>": 32131,
  "ponds</w>": 31033,
  "dsp</w>": 45291,
  "scotty": 39697,
  "voiced</w>": 34352,
  "fulfillment</w>": 45573,
  "ples</w>": 6248,
  "seen</w>": 2041,
  "loma</w>": 42889,
  "decl": 7091,
  "ðŁ¤ª</w>": 24920,
  "wolverhampton</w>": 34518,
  "tttt</w>": 33119,
  "vibe</w>": 12813,
  "apps</w>": 7020,
  "__": 2355,
  "ap</w>": 2728,
  "secular": 47483,
  "sput": 47521,
  "ÑĦÐ¾ÑĤÐ¾</w>": 38981,
  "caddy</w>": 41521,
  "bathing</w>": 20144,
  "insta</w>": 11694,
  "glend": 38332,
  "pooch</w>": 37037,
  "blasting</w>": 26178,
  "fairs</w>": 8655,
  "fortun": 6950,
  "propose</w>": 28471,
  "giveup</w>": 35485,
  "lot": 5132,
  "ktv": 36444,
  "claims</w>": 6852,
  "augu": 2610,
  "traders</w>": 19112,
  "unexpec": 31829,
  "atl</w>": 10629,
  "glia</w>": 22217,
  "cannab": 7577,
  "answer</w>": 4518,
  "stated</w>": 19629,
  "wag": 5764,
  "zain</w>": 45366,
  "me": 613,
  "artwit</w>": 36713,
  "rivals</w>": 15135,
  "shortfilm</w>": 37204,
  "birthday": 7381,
  "rith</w>": 48850,
  "embroide": 21530,
  "ecb</w>": 26205,
  "encyclopedia</w>": 38376,
  "dn": 11552,
  "sparty</w>": 36477,
  "scribed</w>": 38334,
  "nuff</w>": 37324,
  "dium</w>": 2903,
  "congregation</w>": 32618,
  "caliber</w>": 32820,
  "agencies</w>": 13887,
  "guar": 4119,
  "graf</w>": 39765,
  "urve": 24583,
  "displayed</w>": 18967,
  "vomit</w>": 46485,
  "discovered</w>": 6986,
  "would</w>": 1311,
  "arrests</w>": 20683,
  "moderate</w>": 16435,
  "spdwy</w>": 45981,
  "mns</w>": 39040,
  "toms</w>": 10545,
  "merry": 14167,
  "alternate</w>": 15926,
  "filing</w>": 16576,
  "insul": 9615,
  "meister</w>": 28407,
  "ÛĮ": 21452,
  "eleph": 7554,
  "chips</w>": 8855,
  "ligue</w>": 29196,
  "robbie</w>": 15970,
  "tages</w>": 39902,
  "Ý": 153,
  "fcblive</w>": 44608,
  "prayers</w>": 8393,
  "ðŁĺ©ðŁĺ©": 22820,
  "shut": 8702,
  "slush</w>": 39815,
  "les</w>": 840,
  "rats</w>": 19043,
  "touches</w>": 14832,
  "acorn</w>": 37537,
  "drummond</w>": 42213,
  "op</w>": 3691,
  "comingsoon</w>": 19894,
  "fighting": 38625,
  "afootball</w>": 41694,
  "pomegran": 29326,
  "buka</w>": 47778,
  "thenorth</w>": 34338,
  "hon</w>": 10296,
  "deh</w>": 35582,
  "clips</w>": 16594,
  "jason": 10009,
  "lily</w>": 10647,
  "nrc</w>": 45786,
  "âłĢâłĢâłĢâłĢ": 20976,
  "atar": 20128,
  "gr": 709,
  "ãĤ¸": 32234,
  "see": 1751,
  "volley</w>": 34656,
  "knife": 44176,
  "leased</w>": 48352,
  "michele</w>": 20642,
  "mueller</w>": 14719,
  "dapper</w>": 26071,
  "francis</w>": 7660,
  "ðŁĺĤðŁĺĤ</w>": 4112,
  "expanding</w>": 15755,
  "opposite</w>": 12872,
  "ðŁıŁ": 35914,
  "beret</w>": 41658,
  "guardia</w>": 43628,
  "discre": 20616,
  "inaction</w>": 41916,
  "measurable</w>": 48010,
  "grandson</w>": 20766,
  "bolts</w>": 26028,
  "tagged</w>": 12969,
  "orc</w>": 44305,
  "ber": 867,
  "memb": 2114,
  "dough</w>": 14983,
  "skipper</w>": 22226,
  "lieutenant</w>": 22538,
  "jays</w>": 12393,
  "whipping</w>": 41567,
  "abdul": 14227,
  "athers</w>": 17266,
  "quien</w>": 43482,
  "chimney</w>": 26821,
  "genoa</w>": 43993,
  "metres</w>": 19798,
  "museum": 15602,
  "ssels</w>": 8355,
  "enne": 21176,
  "Â»</w>": 7599,
  "tiptuesday</w>": 42112,
  "squat</w>": 30680,
  "poz": 39953,
  "finest</w>": 7707,
  "jef": 10276,
  "october</w>": 3481,
  "getoutside</w>": 35644,
  "ðŁļĢðŁļĢ": 49033,
  "º</w>": 374,
  "connor</w>": 10218,
  "vinay": 43952,
  "ologist</w>": 23442,
  "kohli</w>": 17549,
  "dara</w>": 17064,
  "jacksonville</w>": 19263,
  "acceptable</w>": 14209,
  "pisces</w>": 45982,
  "msp</w>": 22318,
  "redeem</w>": 37449,
  "own</w>": 1758,
  "dramatic</w>": 11240,
  "worlds</w>": 7691,
  "retail": 14910,
  "devotional</w>": 35456,
  "macs</w>": 46548,
  "rosa</w>": 14393,
  "grams</w>": 6294,
  "austri": 8946,
  "sconf</w>": 39704,
  "drupal</w>": 46481,
  "tand": 20244,
  "tiru": 36033,
  "prevent</w>": 7968,
  "gogreen</w>": 36279,
  "abil": 21135,
  "feb</w>": 4317,
  "ten</w>": 2581,
  "reminds</w>": 8303,
  "inely</w>": 18234,
  "whiskey": 41381,
  "tomato</w>": 9867,
  "presentation</w>": 4594,
  "pyram": 14405,
  "fearless</w>": 17470,
  "kidlit": 39064,
  "brecht</w>": 34622,
  "hv": 17209,
  "once": 16331,
  "ic</w>": 1029,
  "fin</w>": 10663,
  "fog</w>": 9417,
  "matics</w>": 23634,
  "ponce</w>": 43637,
  "clutch</w>": 13953,
  "pes": 38368,
  "bride</w>": 8964,
  "mens</w>": 10495,
  "renergy</w>": 37151,
  "ordering</w>": 19588,
  "save</w>": 2673,
  "suppre": 20542,
  "waitin</w>": 44482,
  "squads</w>": 36590,
  "ðŁĶ¸</w>": 24200,
  "combustion</w>": 44654,
  "doin</w>": 15412,
  "insulation</w>": 28194,
  "coupling</w>": 45595,
  "epa</w>": 15866,
  "lores</w>": 34510,
  "trajec": 42042,
  "ilovemy": 28863,
  "restroom</w>": 43423,
  "jais": 48607,
  "diplomat</w>": 32828,
  "mccla": 43672,
  "pandor": 30250,
  "foundations</w>": 25219,
  "methodist</w>": 25165,
  "ellier</w>": 44054,
  "fringe</w>": 10640,
  "ditch": 43715,
  "global": 6707,
  "stit": 14110,
  "eared</w>": 9127,
  "mington": 49283,
  "cotton": 22218,
  "skip</w>": 14296,
  "format": 16252,
  "eb": 12283,
  "cinderella</w>": 21515,
  "confidential</w>": 28712,
  "rusty": 43966,
  "amped</w>": 22640,
  "calla": 20658,
  "ineau</w>": 38122,
  "skey</w>": 37453,
  "hospital": 29399,
  "topless</w>": 37415,
  "tely</w>": 5630,
  "ghter</w>": 2427,
  "labout": 35961,
  "christie</w>": 16084,
  "awaz</w>": 18586,
  "distinguish</w>": 45418,
  "ghoshal</w>": 49134,
  "inak": 46549,
  "illustrated</w>": 13151,
  "access": 7596,
  "withyou</w>": 30351,
  "angs</w>": 18441,
  "vuelta</w>": 43856,
  "eval</w>": 9703,
  "siss": 42929,
  "duo</w>": 8696,
  "burnham</w>": 36111,
  "aj": 3990,
  "mask</w>": 8306,
  "deforestation</w>": 41330,
  "buffe": 13724,
  "ast</w>": 1242,
  "brexit": 27666,
  "harvey": 33289,
  "ovi": 32508,
  "tation</w>": 5280,
  "disney</w>": 4696,
  "marr</w>": 32871,
  "sharing</w>": 3567,
  "loan": 28431,
  "sandeep</w>": 46973,
  "handles</w>": 22124,
  "sgo</w>": 21044,
  ";;</w>": 24492,
  "cos": 5865,
  "attu</w>": 43173,
  "knocked</w>": 15325,
  "harbaugh</w>": 45220,
  "wentz</w>": 39179,
  "pff</w>": 44121,
  "taylor</w>": 3961,
  "ðŁĳ¸": 26268,
  "âĿĦï¸ı": 16834,
  "paula</w>": 16777,
  "ingredient</w>": 19799,
  "nina</w>": 13891,
  "fabricated</w>": 40851,
  "daniels</w>": 16146,
  "pardon</w>": 26565,
  "turnt</w>": 28887,
  "teeth</w>": 8225,
  "frazier</w>": 32841,
  "bradley</w>": 10952,
  "du": 691,
  "tin": 1310,
  "outs</w>": 5790,
  "izer</w>": 23895,
  "refuge": 5638,
  "zo": 4397,
  "Ĝ</w>": 472,
  "stop</w>": 1691,
  "perspectives</w>": 18777,
  "gems</w>": 14355,
  "peop": 1030,
  "breeders</w>": 37472,
  "Ðº": 27152,
  "sub": 1783,
  "Ãº": 17963,
  "haan</w>": 36284,
  "khtar</w>": 45593,
  "mau</w>": 23033,
  "travelblog</w>": 35957,
  "odi": 12223,
  "hogan</w>": 19757,
  "xxx": 33923,
  "rers</w>": 18869,
  "discography</w>": 47545,
  "rape</w>": 10070,
  "yum": 6869,
  "gigab": 34530,
  "edfringe</w>": 27402,
  "marrow</w>": 31030,
  "thol": 29319,
  "neau</w>": 31559,
  "stow</w>": 17046,
  "crooks</w>": 44226,
  "slalom</w>": 43540,
  "modules</w>": 30575,
  "momma</w>": 14508,
  "âļ½âļ½": 43259,
  "edp</w>": 46066,
  "excer": 17737,
  "sale": 17786,
  "ense": 12657,
  "kawa</w>": 33244,
  "ĩ": 229,
  "pattinson</w>": 32474,
  "deo</w>": 12121,
  "topp": 19529,
  "housemusic</w>": 28468,
  "vas": 5669,
  "tna</w>": 21150,
  "dak</w>": 16095,
  "peach": 10522,
  "drome</w>": 9157,
  "hilde": 45382,
  "forgotten</w>": 7994,
  "hobbs</w>": 34343,
  "notts</w>": 25598,
  "cbn</w>": 26579,
  "bun": 2591,
  "keto</w>": 28754,
  "leaders</w>": 3546,
  "employe": 5037,
  "bam</w>": 12686,
  "anticipated</w>": 18605,
  "yelp</w>": 31674,
  "ult</w>": 4380,
  "jelly": 19110,
  "cushions</w>": 34163,
  "importantly</w>": 21580,
  "carroll": 41911,
  "prow": 38737,
  "ders</w>": 1923,
  "leicester": 28795,
  "recreate</w>": 29775,
  "arios</w>": 25392,
  "critically</w>": 21570,
  "ligam": 31077,
  "shame</w>": 7593,
  "kah": 16068,
  "nireland</w>": 45763,
  "æĻ": 48132,
  "bloggerrt</w>": 48898,
  "shies</w>": 35312,
  "cible</w>": 28873,
  "tag": 3456,
  "stevens</w>": 13877,
  "gha</w>": 25183,
  "update</w>": 2491,
  "edtech</w>": 15262,
  "policies</w>": 10993,
  "len": 3687,
  "exhibit</w>": 8209,
  "olsen</w>": 26307,
  "nova</w>": 11236,
  "sentimental</w>": 40070,
  "porters</w>": 15670,
  "facing</w>": 7619,
  "vehicles</w>": 8361,
  "affordable": 43944,
  "nett": 23403,
  "scripts</w>": 20109,
  "affinity</w>": 41451,
  "imperson": 25551,
  "tues</w>": 12113,
  "grump": 49015,
  "headliner</w>": 38880,
  "ðŁĴ¥ðŁĴ¥ðŁĴ¥</w>": 48890,
  "thletics</w>": 17765,
  "dan</w>": 2284,
  "afi": 24074,
  "lovemyjob</w>": 40130,
  "newsletter</w>": 11069,
  "katic</w>": 48058,
  "costu": 5786,
  "cae</w>": 49264,
  "poolside</w>": 35509,
  "schooling</w>": 28608,
  "moyes</w>": 37119,
  "positioned</w>": 34482,
  "ðŁĵ²</w>": 19363,
  "vodafone</w>": 38695,
  "satisfying</w>": 23755,
  "gave</w>": 3485,
  "cate</w>": 24510,
  "pike": 33457,
  "bunde": 18841,
  "âļ½ï¸ıâļ½ï¸ı": 30358,
  "stretching</w>": 24423,
  "chry": 13508,
  "therapper</w>": 49340,
  "hover</w>": 49016,
  "swimwear</w>": 31889,
  "malaria</w>": 24929,
  "esports</w>": 16035,
  "relegation</w>": 35040,
  "preparations</w>": 19135,
  "beacons</w>": 39395,
  "quinoa</w>": 26703,
  "lex": 6586,
  "gonzaga</w>": 36241,
  "graph": 1349,
  "isabelle</w>": 31072,
  "stress</w>": 5843,
  "tonights</w>": 23312,
  "sarato": 24845,
  "nica</w>": 29040,
  "diablo</w>": 23931,
  "hyped</w>": 22507,
  "moments</w>": 5251,
  "corsa</w>": 47670,
  "recruits</w>": 22647,
  "onies</w>": 22601,
  "usually</w>": 8296,
  "helpless</w>": 47638,
  "unner</w>": 31481,
  "icc</w>": 12945,
  "nightlife</w>": 28823,
  "gridiron</w>": 47786,
  "signee</w>": 39778,
  "prized</w>": 38769,
  "eliza": 6132,
  "shant": 36610,
  "pomer": 35156,
  "ssu</w>": 35351,
  "rafaelnadal</w>": 49219,
  "monica</w>": 13540,
  "cfa</w>": 34521,
  "bigg</w>": 35399,
  "medicinal</w>": 28772,
  "hobby": 41120,
  "packets</w>": 40448,
  "ril</w>": 2388,
  "botswana</w>": 27584,
  "mise": 46567,
  "ribs</w>": 17519,
  "civic</w>": 11888,
  "ðŁİ¤": 23490,
  "hos</w>": 25008,
  "playbook</w>": 34856,
  "look</w>": 1012,
  "axes</w>": 45970,
  "touchdowns</w>": 37905,
  "sith</w>": 41499,
  "make</w>": 1078,
  "cier": 24067,
  "compan": 1995,
  "prophecy</w>": 32501,
  "warbler</w>": 33891,
  "clare</w>": 15927,
  "temper</w>": 35521,
  "qu</w>": 28646,
  "dprinting</w>": 16194,
  "out": 1130,
  "independent": 33844,
  "israel</w>": 4779,
  "swift</w>": 8229,
  ".!</w>": 14030,
  "colours</w>": 7626,
  "widget</w>": 43906,
  "tv</w>": 1583,
  "vsco</w>": 32822,
  "gari": 40898,
  "beverly": 30906,
  "smartest</w>": 37092,
  "âļ¡ï¸ı": 19500,
  "Ġ": 220,
  "cfl</w>": 22332,
  "addict</w>": 14614,
  "shepard</w>": 26810,
  "recess</w>": 38182,
  "bit</w>": 2010,
  "rox": 14111,
  "âĸł</w>": 36791,
  "beek</w>": 37915,
  "kilometres</w>": 43278,
  "cap": 1289,
  "eviction</w>": 37111,
  "patriarch</w>": 49054,
  "mellow</w>": 32034,
  "kindle": 24704,
  "aju": 36855,
  "stallion</w>": 28273,
  "cfl": 46320,
  "lacey</w>": 31754,
  "loven": 33754,
  "magnum</w>": 23496,
  "theodore</w>": 30743,
  "noodles</w>": 15782,
  "saban</w>": 41620,
  "sharpe</w>": 34374,
  "baku": 46417,
  "iw</w>": 46604,
  "aaf</w>": 31534,
  "feren": 35652,
  "thephoto": 18303,
  "medina</w>": 27281,
  "hire</w>": 8243,
  "sticker</w>": 11270,
  "release</w>": 2706,
  "columb": 31043,
  "warwick</w>": 22215,
  "bestof": 27892,
  "liz</w>": 12242,
  "saka</w>": 33609,
  "inspection</w>": 15142,
  "siri": 13986,
  "etc</w>": 5353,
  "rufc</w>": 45084,
  "bacca</w>": 40708,
  "pembro": 24084,
  "mph</w>": 5306,
  "mercedes": 26403,
  "openingday</w>": 36359,
  "prejudice</w>": 28337,
  "opath": 33079,
  "erson</w>": 6811,
  "abi</w>": 14161,
  "cllr</w>": 23034,
  "ðŁıī</w>": 26020,
  "bib": 44607,
  "à¸£": 32225,
  "westh": 36798,
  "southafrica</w>": 15184,
  "wim</w>": 27580,
  "cci": 32942,
  "upstream</w>": 45517,
  "dan": 2257,
  "alestine</w>": 31945,
  "itss": 47040,
  "string</w>": 9696,
  "marsh</w>": 13505,
  "pont</w>": 22997,
  "quietly</w>": 22208,
  "shoes": 49391,
  "tutti</w>": 46880,
  "lewisham": 37385,
  "eliza</w>": 29992,
  "biomass</w>": 36746,
  "per": 703,
  "ðŁĴĹ</w>": 6690,
  "edwar": 27586,
  "gods": 33620,
  "matic</w>": 7900,
  "lewd</w>": 45241,
  "greys</w>": 44311,
  "urgent</w>": 13693,
  "sweeping</w>": 25719,
  "bowser</w>": 38234,
  "nb": 6459,
  "ra": 559,
  "à¸Ķ</w>": 38825,
  "mg</w>": 8014,
  "enna</w>": 8095,
  "pois": 17008,
  "...?</w>": 16388,
  "bell": 5417,
  "facilitating</w>": 34796,
  "cross</w>": 3417,
  "tran": 1357,
  "disorder</w>": 12635,
  "nwsl</w>": 48394,
  "waist": 36946,
  "((</w>": 13796,
  "shareholders</w>": 34778,
  "singul": 34003,
  "ence</w>": 954,
  "boi</w>": 12673,
  "ilove": 7183,
  "brance</w>": 15413,
  "wey</w>": 19781,
  "bev": 40324,
  "stacking</w>": 39836,
  "bose</w>": 23142,
  "atec": 37352,
  "hi": 677,
  "blogs</w>": 16682,
  "esi</w>": 30064,
  "lowers</w>": 36398,
  "illing</w>": 2803,
  "kpop</w>": 15859,
  "ized</w>": 7690,
  "funding</w>": 5588,
  "travel": 2824,
  "jarrett</w>": 30531,
  "positi": 7895,
  "marketers</w>": 23682,
  "onetsy</w>": 33392,
  "notjust": 33212,
  "tb</w>": 7490,
  "climatechange</w>": 11055,
  "challenge</w>": 2836,
  "apolog": 25530,
  "visuals</w>": 21315,
  "vinod</w>": 43348,
  "bosa</w>": 46946,
  "risky</w>": 27630,
  "cheeks</w>": 23019,
  "stacey</w>": 24262,
  "pasta</w>": 10441,
  "hola</w>": 28724,
  "controversy</w>": 18659,
  "diar": 25932,
  "livelihood</w>": 46497,
  "pesto</w>": 26186,
  "outrage</w>": 23577,
  "interrup": 21609,
  "forex</w>": 17395,
  "guez</w>": 12313,
  "oncology</w>": 24593,
  "aleppo</w>": 19258,
  "fold</w>": 11021,
  "car</w>": 1615,
  "coms</w>": 30493,
  "rainf": 15024,
  "tention</w>": 12191,
  "gow</w>": 33788,
  "nebra": 13371,
  "yaan</w>": 34680,
  "tiffany</w>": 14446,
  "changers</w>": 35185,
  "ìķ": 16071,
  "clayton</w>": 19413,
  "independent</w>": 7088,
  "economy</w>": 5644,
  "stations</w>": 10051,
  "britneyspears</w>": 42990,
  "ðŁĻ": 1478,
  "dahlia</w>": 41768,
  "honest</w>": 9602,
  "page</w>": 2504,
  "instaf": 33800,
  "reinfor": 48161,
  "headlining</w>": 26971,
  "ography</w>": 22399,
  "vism</w>": 15514,
  "âĵ": 27400,
  "splin": 38090,
  "chita</w>": 49184,
  "micron": 48742,
  "osm": 31626,
  "steven": 10973,
  "sleeps</w>": 16610,
  "runchat</w>": 25838,
  "lepre": 45641,
  "deser": 3659,
  "forum": 37851,
  "surplus</w>": 29413,
  "semitic</w>": 34894,
  "cheng</w>": 30190,
  "amps</w>": 19252,
  "slack</w>": 30142,
  "entertaining</w>": 13897,
  "charm</w>": 10876,
  "mably</w>": 40082,
  "deliver</w>": 7396,
  "preorder</w>": 16703,
  "sciss": 25667,
  "itec": 3099,
  "gum</w>": 11235,
  "billy</w>": 6814,
  "suicidal</w>": 37165,
  "nfl</w>": 4691,
  ":::</w>": 43818,
  "comb": 3587,
  "reading</w>": 2337,
  "feral</w>": 29972,
  "jerry</w>": 9164,
  "zens</w>": 15298,
  "sholm</w>": 44139,
  "cartunesapp</w>": 32888,
  "performan": 8973,
  "ðŁįĳ</w>": 32889,
  "sunset": 37880,
  "dreambig</w>": 46495,
  "brought</w>": 4222,
  "wicklow</w>": 39039,
  "bubba</w>": 28149,
  "status</w>": 6414,
  "moons</w>": 29887,
  "nikon": 25488,
  "ġ": 221,
  "unreleased</w>": 29654,
  "rona</w>": 42385,
  "unhappy</w>": 26528,
  "âĻ¬</w>": 24753,
  "chopper</w>": 24011,
  "hauer</w>": 48751,
  "centennial</w>": 20895,
  "mou": 2809,
  "ethical</w>": 17679,
  "apr": 39396,
  "grill</w>": 9519,
  "harass": 16481,
  "start</w>": 1572,
  "tou</w>": 29261,
  "bff</w>": 11984,
  "staffing</w>": 32932,
  "thenext": 47881,
  "bie</w>": 4173,
  "ails</w>": 27024,
  "horo": 21500,
  "bleach</w>": 27034,
  "margar": 16838,
  "upp</w>": 45946,
  "ministerial</w>": 33008,
  "nmwx</w>": 47967,
  "ayama</w>": 41194,
  "brute</w>": 47552,
  "monc": 34847,
  "ohhhh</w>": 40201,
  "people": 10573,
  "lough</w>": 28045,
  "cad": 6297,
  "print": 17851,
  "ameen</w>": 24229,
  "thorn</w>": 18466,
  "judice</w>": 28032,
  "beckett</w>": 27249,
  "shaun": 23446,
  "gender</w>": 5906,
  "denial</w>": 25716,
  "sloan</w>": 29110,
  "canny</w>": 26986,
  "remained</w>": 23714,
  "cg</w>": 14740,
  "speechless</w>": 23152,
  "stant": 41576,
  "smiled</w>": 34362,
  "peruvian</w>": 30822,
  "voy</w>": 15021,
  "sedg": 46926,
  "michelin</w>": 26330,
  "extravaganza</w>": 29461,
  "leroy</w>": 32441,
  "renfre": 45043,
  "brando</w>": 41892,
  "tiger": 11954,
  "phoebe</w>": 27582,
  "appt</w>": 48112,
  "clasico</w>": 43567,
  "led": 8767,
  "teed</w>": 13692,
  "soil": 33417,
  "fro": 626,
  "extract</w>": 18962,
  "startrek</w>": 15349,
  "ez</w>": 8387,
  "oes</w>": 3643,
  "maythe</w>": 42281,
  "mardi": 39728,
  "reuters</w>": 15569,
  "plum": 26267,
  "insisted</w>": 40423,
  "impair": 36451,
  "tya</w>": 41273,
  "transcend": 47087,
  "easy</w>": 3176,
  "fab</w>": 5492,
  "sparkles</w>": 36410,
  "ssier</w>": 26422,
  "servants</w>": 29652,
  "jeffrey</w>": 16027,
  "english": 15942,
  "torture</w>": 16013,
  "tab": 2648,
  "daes": 47282,
  "iz": 2845,
  "temper": 5981,
  "cole": 9305,
  "gossi": 15684,
  "ðŁĴ¦</w>": 14060,
  "championship</w>": 3429,
  "thy</w>": 3362,
  "agroup</w>": 40099,
  "same": 23062,
  "acher": 38442,
  "ella": 20692,
  "jacob</w>": 9222,
  "opted</w>": 42035,
  "fighter": 35884,
  "sigue</w>": 49401,
  "felipe</w>": 27681,
  "norman</w>": 11338,
  "djokernole</w>": 42830,
  "asters</w>": 33139,
  "quinte": 22098,
  "zindabad</w>": 42208,
  "kesha</w>": 36526,
  "without</w>": 2193,
  "tumor</w>": 22616,
  "breakers</w>": 22270,
  "essen</w>": 30489,
  "gos": 20517,
  "regarded</w>": 32017,
  "mester</w>": 47349,
  "capitol</w>": 11375,
  "prevented</w>": 35356,
  "inspiring": 41847,
  "snap": 4578,
  "safety": 19050,
  "hooks</w>": 25068,
  "intri": 15421,
  "tun": 1415,
  "with</w>": 593,
  "chop</w>": 16663,
  "mis</w>": 11239,
  "candel": 47834,
  "mouths</w>": 38518,
  "frc</w>": 41507,
  "kow</w>": 23919,
  "ìĿ¼": 43406,
  "towns</w>": 14173,
  "shades": 46608,
  "cigar": 26031,
  "schre": 47685,
  "D</w>": 291,
  "leila</w>": 41342,
  "wwww</w>": 25200,
  "luck": 9647,
  "melo": 10354,
  "emery</w>": 32678,
  "transaction</w>": 24881,
  "bm": 4773,
  "asion</w>": 31753,
  "tens</w>": 14062,
  "aligned</w>": 29292,
  "ðŁ¤ĺðŁı»": 46449,
  "municipal</w>": 16600,
  "atu</w>": 24295,
  "nic</w>": 6651,
  "civ": 40039,
  "hess</w>": 41888,
  "plin</w>": 32335,
  "tanz": 47399,
  "shahid</w>": 27138,
  "directive</w>": 40630,
  "karim</w>": 33477,
  "refugees": 42687,
  "performs</w>": 13839,
  "sinister</w>": 31313,
  "selby</w>": 43546,
  "turquoise</w>": 19899,
  "chuckle</w>": 35733,
  "diver</w>": 22094,
  "miniature</w>": 16377,
  "commit": 3041,
  "ops</w>": 3054,
  "ern</w>": 12140,
  "sep": 3212,
  "sweet</w>": 2418,
  "ine</w>": 715,
  "old": 4931,
  "opponent</w>": 17002,
  "cian</w>": 32323,
  "recipe</w>": 4614,
  "leye</w>": 37061,
  "boretum</w>": 38902,
  "brox</w>": 43539,
  "organiser</w>": 49141,
  "nocchi</w>": 46359,
  "ppe": 24573,
  "hdr</w>": 28065,
  "yegfood</w>": 48711,
  "swild": 33909,
  "premature</w>": 39253,
  "sideline</w>": 32056,
  "ahan": 45061,
  "viewers</w>": 14275,
  "occurs</w>": 26563,
  "eet</w>": 48935,
  "-$</w>": 24946,
  "fallout": 49365,
  "vn": 47098,
  "commended</w>": 40702,
  "í": 169,
  "cisco</w>": 19290,
  "whim": 27766,
  "mith": 21752,
  "ðŁĵ¸@</w>": 39660,
  "xxxxx</w>": 44195,
  "feline</w>": 29471,
  "mill</w>": 6637,
  "mj": 13117,
  "black</w>": 1449,
  "fah</w>": 35429,
  "witt": 38194,
  "braid</w>": 31067,
  "scher</w>": 21299,
  "intl</w>": 14224,
  "berta</w>": 45187,
  "chelle</w>": 30141,
  "onist</w>": 10099,
  "lovers": 48416,
  "valle": 24857,
  "yler</w>": 48081,
  "healthtech</w>": 42694,
  "horrible</w>": 13726,
  "outfit</w>": 6525,
  "francis": 22187,
  "aand": 38054,
  "referring</w>": 29797,
  "casa</w>": 14643,
  "streetcar</w>": 34268,
  "veen</w>": 22432,
  "atha</w>": 22530,
  "riverdale</w>": 28304,
  "anth": 3737,
  "diamon": 8873,
  "mnd</w>": 44776,
  "mountain": 14547,
  "ðŁĴ¥ðŁĴ¥</w>": 39246,
  "fridayreads</w>": 37736,
  "snakes</w>": 19605,
  "lakedistrict</w>": 26437,
  "nikeplus</w>": 43154,
  "icz</w>": 46387,
  "shankar</w>": 24108,
  "montp": 39523,
  "olu</w>": 46302,
  "exhilar": 40262,
  "fili": 9590,
  "rowing</w>": 12807,
  "kennel</w>": 39595,
  "disparities</w>": 45122,
  "xs</w>": 16397,
  "melon</w>": 12146,
  "quan</w>": 27490,
  "scru": 7589,
  "eel</w>": 27462,
  "hazi</w>": 22740,
  "psychi": 18147,
  "ver": 624,
  "aas": 28542,
  "khali": 11324,
  "gement</w>": 19495,
  "turk": 8254,
  "archaeology</w>": 14868,
  "zam": 7218,
  "jol</w>": 36470,
  "lloyd": 33339,
  "b": 65,
  "trillion</w>": 20160,
  "totes</w>": 37199,
  "directs</w>": 34349,
  "scoring</w>": 9198,
  "carne</w>": 42885,
  "kazakh": 25451,
  "L</w>": 299,
  "rice</w>": 4741,
  "eded</w>": 19555,
  "glomer": 43689,
  "retaining</w>": 35571,
  "regeneration</w>": 29257,
  "ă</w>": 447,
  "seedlings</w>": 47933,
  "satanic</w>": 38224,
  "capture</w>": 8818,
  "Õ": 145,
  "redevelopment</w>": 30322,
  "riff</w>": 30359,
  "grote": 47207,
  "seren": 7880,
  "romania</w>": 15884,
  "zanzi": 47835,
  "rever</w>": 41913,
  "denise": 45900,
  "hyper": 7997,
  "gordon": 20485,
  "runners</w>": 10571,
  "brutality</w>": 31348,
  "bookfest</w>": 39381,
  "euchar": 38362,
  "frequent</w>": 19836,
  "sidekick</w>": 44683,
  "because": 32714,
  "erika</w>": 25531,
  "ðŁ¤": 1793,
  "dis</w>": 6112,
  "cals</w>": 47714,
  "quoi</w>": 45549,
  "ris</w>": 1999,
  "expe": 2560,
  "pacers</w>": 23976,
  "dings</w>": 5473,
  "onsite</w>": 37336,
  "against": 23838,
  "pao</w>": 33790,
  "nev</w>": 43645,
  "drogba</w>": 49199,
  "asx</w>": 38906,
  "galatasaray</w>": 47787,
  "canti": 42845,
  "u": 84,
  "hew": 48141,
  "entered</w>": 10679,
  "marvelcomics</w>": 46897,
  "kaur</w>": 30518,
  "invaluable</w>": 33976,
  "zetta</w>": 45993,
  "piccollage</w>": 43621,
  "took</w>": 2280,
  "iteration</w>": 38790,
  "passer</w>": 48544,
  "coronation</w>": 25014,
  "securing</w>": 24759,
  "richards</w>": 11372,
  "andco</w>": 36302,
  "outof": 43958,
  "fiesta</w>": 14580,
  "itec</w>": 43936,
  "detta</w>": 45438,
  "ø": 180,
  "church</w>": 2735,
  "kly</w>": 45090,
  "ðĿĺ": 26109,
  "ephe": 25129,
  "gdc</w>": 32793,
  "twice</w>": 6970,
  "worse</w>": 8236,
  "baek</w>": 32702,
  "notch</w>": 19476,
  "memor": 1858,
  "hypnoti": 40440,
  "chik</w>": 45455,
  "mua</w>": 21395,
  "troop": 12492,
  "google</w>": 3460,
  "rito</w>": 19379,
  "dark": 5724,
  "toc</w>": 30643,
  "grooves</w>": 43954,
  "organising</w>": 22787,
  "peoples": 28241,
  "fw</w>": 5277,
  "phone": 15486,
  "zazzle</w>": 47857,
  "dam": 1880,
  "advisor</w>": 12380,
  "vests</w>": 41906,
  "hawke</w>": 38178,
  "govt</w>": 5345,
  "clg</w>": 47546,
  "trouble": 25669,
  "nypd": 42293,
  "kesh</w>": 19751,
  "grass</w>": 5922,
  "lustre</w>": 46673,
  "edit": 8239,
  "eden</w>": 13741,
  "mast": 45916,
  "promoter</w>": 33081,
  "quality": 28545,
  "ma": 577,
  "zana</w>": 39643,
  "eddie": 22748,
  "hump": 16673,
  "hack": 6610,
  "chez</w>": 10556,
  "osh": 30717,
  "tec": 17381,
  "nar</w>": 20145,
  "ë¦": 24621,
  "puertorico</w>": 26356,
  "elvis</w>": 14498,
  "princes</w>": 30136,
  "crafting</w>": 26886,
  "collects</w>": 31576,
  "pba</w>": 28205,
  "divid": 31337,
  "toff</w>": 27319,
  "costarica</w>": 31272,
  "ãĤĮ</w>": 45211,
  "javelin</w>": 41701,
  "clap</w>": 25546,
  "dot</w>": 7004,
  "braves</w>": 14422,
  "dum": 13400,
  "wagons</w>": 47944,
  "hyun": 11831,
  "ðŁĺĥðŁĺĥ</w>": 38358,
  "myth": 20322,
  "terrain</w>": 20184,
  "auc": 24489,
  "schumacher</w>": 39208,
  "babymetal</w>": 45013,
  "sevel": 17439,
  "poll</w>": 7032,
  "âľĮ": 6419,
  "liam</w>": 7167,
  "ahar": 31038,
  "ÙĪØ±": 48242,
  "appren": 10582,
  "acoustic</w>": 10616,
  "jagan</w>": 48530,
  "ðŁĵļ": 25433,
  "boosting</w>": 28480,
  "tr": 635,
  "takin</w>": 30890,
  "blacklist</w>": 30295,
  "miso": 27657,
  "jumpman</w>": 48803,
  "arches</w>": 30771,
  "pickering</w>": 47605,
  "unrest</w>": 36452,
  "nati</w>": 13384,
  "inaugur": 11448,
  "bonus</w>": 8164,
  "obstacles</w>": 24480,
  "sphe": 33691,
  "accuse</w>": 39414,
  "emergency</w>": 5897,
  "defstar</w>": 36427,
  "inn": 27260,
  "astri": 31243,
  "hairstyles</w>": 40627,
  "âĻ©âĻ«</w>": 31636,
  "lass</w>": 18263,
  "youn": 1596,
  "robbers</w>": 40852,
  "rais": 14729,
  "aine</w>": 17634,
  "indore</w>": 46143,
  "thab": 38219,
  "cairns</w>": 32941,
  "thed</w>": 31405,
  "gardener</w>": 28554,
  "lavender</w>": 16033,
  "unprece": 23054,
  "univers": 5855,
  "netflix</w>": 6600,
  "sisi</w>": 37892,
  "accompanying</w>": 38179,
  "images</w>": 4952,
  "dua</w>": 25244,
  "ðŁįĵ": 44739,
  "boba</w>": 39948,
  "calam": 28841,
  "ogil": 39013,
  "lators</w>": 28278,
  "future": 7959,
  "kyu</w>": 25490,
  "scotland</w>": 4203,
  "brill</w>": 28601,
  "avis": 45163,
  "lovin": 33442,
  "sectional</w>": 21876,
  "theatre</w>": 3292,
  "emerson</w>": 24147,
  "founding</w>": 15317,
  "depressed</w>": 23269,
  "skc</w>": 44551,
  "ðŁ¤Ļ": 23800,
  "rachel": 13511,
  "mosley</w>": 46228,
  "betrayal</w>": 33171,
  "rhin": 12269,
  "sigma</w>": 15697,
  "dim</w>": 17523,
  "discourse</w>": 29441,
  "attn</w>": 25677,
  "ricotta</w>": 38473,
  "tham": 11761,
  "mb</w>": 3996,
  "savoy</w>": 39552,
  "perseverance</w>": 29820,
  "toxic</w>": 12348,
  "gau": 5919,
  "aussie": 40230,
  "ception</w>": 12346,
  "ðŁĺįðŁĶ¥</w>": 46648,
  "thunderbolt</w>": 43596,
  "trape": 42435,
  "ahl</w>": 30433,
  "tionist</w>": 25732,
  "inflatable</w>": 30135,
  "ople</w>": 25663,
  "sahib</w>": 34150,
  "encies</w>": 18729,
  "kamal</w>": 28619,
  "scans</w>": 31251,
  "socialmedia</w>": 9600,
  "formity</w>": 42290,
  "podcasting</w>": 40106,
  "hat": 3447,
  "overflow</w>": 32885,
  "mino</w>": 22791,
  "furman</w>": 49238,
  "athletics</w>": 7019,
  "leagueof": 26022,
  "softly</w>": 34958,
  "|</w>": 347,
  "seng</w>": 29971,
  "opra</w>": 28291,
  "galaxy": 32130,
  "yaz": 19348,
  "dianne</w>": 42299,
  "brit": 2318,
  "tbc</w>": 31807,
  "sick</w>": 5359,
  "âľĭ</w>": 30239,
  "bur</w>": 17362,
  "aggies</w>": 31047,
  "aldi</w>": 23204,
  "rhi": 21212,
  "books": 44382,
  "demanding</w>": 17099,
  "âĸº</w>": 12086,
  "bf": 19858,
  "antelope</w>": 39177,
  "scotia</w>": 27859,
  "witcher</w>": 33684,
  "canal</w>": 9535,
  "stuff</w>": 3487,
  "justicefor": 25812,
  "stanley</w>": 10079,
  "bahrain</w>": 12503,
  "edmonton": 37311,
  "disneyworld</w>": 28469,
  "prab": 17901,
  "beale</w>": 39717,
  "approaching</w>": 12164,
  "val</w>": 1560,
  "ference</w>": 19984,
  "discussion</w>": 5060,
  "rendon</w>": 46272,
  "ðŁĲİ": 48281,
  "cbp</w>": 46723,
  "trip": 23421,
  "galvani": 46046,
  "ðŁĺĺðŁĺĺðŁĺĺðŁĺĺ</w>": 44892,
  "cbc": 14096,
  "yan</w>": 4788,
  "gallagher</w>": 19168,
  "gonna</w>": 2562,
  "hae": 30723,
  "bowers</w>": 42238,
  "showtime": 40576,
  "jel": 9794,
  "?!!</w>": 25342,
  "gillespie</w>": 36242,
  "disgrace</w>": 29877,
  "burning": 46107,
  "chicas</w>": 40664,
  "dozens</w>": 17883,
  "devastation</w>": 42452,
  "sobri": 49308,
  "dwarf</w>": 22643,
  "paddling</w>": 40645,
  "hands</w>": 3500,
  "predators</w>": 25569,
  "kareena</w>": 41569,
  "circumstances</w>": 18786,
  ",âĢ¦</w>": 14601,
  "greens</w>": 10235,
  "apes</w>": 9550,
  "equitable</w>": 44717,
  "akistan</w>": 46221,
  "historian</w>": 20697,
  "redvelvet</w>": 41845,
  "spoon": 27001,
  "bona</w>": 33342,
  "astonishing</w>": 27110,
  "den</w>": 1181,
  "cfc</w>": 11577,
  "smtown</w>": 26072,
  "owed</w>": 37641,
  "kin": 1442,
  "eli</w>": 6292,
  "hio</w>": 32897,
  "windshield</w>": 33002,
  "felici": 23379,
  "buon</w>": 48498,
  "aurora</w>": 13500,
  "pill": 14830,
  "bays</w>": 40156,
  "now</w>": 692,
  "reap</w>": 31334,
  "els": 35958,
  "flax</w>": 43443,
  "inventions</w>": 44914,
  "merlot</w>": 40424,
  "match": 7733,
  "scorers</w>": 26699,
  "pollu": 8370,
  "camino</w>": 28529,
  "hpc</w>": 39936,
  "tracey</w>": 25558,
  "erik": 22805,
  "foli": 7713,
  "scheduled</w>": 10986,
  "bals</w>": 44154,
  "imperi": 30911,
  "sikh</w>": 21829,
  "arrogance</w>": 47025,
  "stoned</w>": 36248,
  "tom": 999,
  "clear</w>": 3143,
  "bulb</w>": 22373,
  "âĶĢ": 45139,
  "jolly</w>": 21516,
  "crafts</w>": 13383,
  "inox</w>": 22698,
  "common</w>": 4176,
  "uked": 48987,
  "cultivate</w>": 42983,
  "requiring</w>": 33425,
  "trumprussia</w>": 39135,
  "hears</w>": 25395,
  "gious</w>": 14419,
  "gripping</w>": 34567,
  "shka</w>": 38944,
  "emo</w>": 19381,
  "olic</w>": 31341,
  "kre": 8362,
  "hanger</w>": 28905,
  "sn": 1672,
  "gogh</w>": 19697,
  "cashe": 32233,
  "sesame</w>": 21706,
  "tier": 14390,
  "sth": 13456,
  "riesling</w>": 36372,
  "grassi</w>": 42294,
  "mustang</w>": 13309,
  "guernsey</w>": 33982,
  "hrw</w>": 25064,
  "pastors</w>": 30959,
  "delhi</w>": 5717,
  "joy": 6308,
  "chast": 42176,
  "pamper</w>": 44345,
  "ritz</w>": 25627,
  "ras</w>": 8224,
  "sosfam</w>": 47709,
  "sat</w>": 3279,
  "rebounds</w>": 19190,
  "tland</w>": 30697,
  "ob": 1411,
  "pulmonary</w>": 39132,
  "cut</w>": 3032,
  "dug": 22743,
  "louisvuitton</w>": 44911,
  "shout</w>": 5214,
  "azy</w>": 24783,
  "poplar</w>": 38726,
  "ussr</w>": 32697,
  "foryou</w>": 35150,
  "viv</w>": 35363,
  "lice</w>": 45691,
  "nbl</w>": 42652,
  "agr": 36639,
  "sweethe": 16316,
  "hager": 48773,
  "umc</w>": 39491,
  "mathews</w>": 37120,
  "lexington</w>": 22308,
  "bridg": 20623,
  "contra": 9880,
  "affiliate</w>": 18652,
  "iwant": 42747,
  "tix</w>": 5835,
  "shand": 29101,
  "keaton</w>": 29975,
  "religious</w>": 8289,
  "dyn": 44289,
  "badminton</w>": 21412,
  "davido</w>": 35989,
  "radish</w>": 37789,
  "blondes</w>": 45130,
  "smil": 33937,
  "sina</w>": 19541,
  "findyour": 25936,
  "peshawar</w>": 29230,
  "dou": 1756,
  "seem</w>": 7523,
  "dores</w>": 34323,
  "lineups</w>": 33589,
  "soc": 3253,
  "stanley": 19048,
  "ards</w>": 1654,
  "dundal": 38185,
  "helping</w>": 3875,
  "yoko</w>": 32256,
  "crawley</w>": 42316,
  "aviation</w>": 7617,
  "meeting</w>": 2071,
  "midwest</w>": 16627,
  "unhealthy</w>": 30994,
  "togo</w>": 26729,
  "mongo": 20680,
  "nishi": 32386,
  "judas</w>": 39532,
  "olympics</w>": 7629,
  "willy": 34502,
  "amand": 14560,
  "offe": 8261,
  "vest</w>": 12473,
  "pirate</w>": 13592,
  "teo</w>": 18665,
  "hower</w>": 32920,
  "cnn": 22405,
  "mfa</w>": 24107,
  "repost": 33147,
  "plau": 39139,
  "death</w>": 2767,
  "anything</w>": 3582,
  "łĪ": 43364,
  "ssively</w>": 28060,
  "misconduct</w>": 30601,
  "wastewater</w>": 34463,
  "charitytuesday</w>": 42794,
  "kstate": 48590,
  "green": 2762,
  "kick": 4102,
  "hired</w>": 17602,
  "packer</w>": 28209,
  "detroit</w>": 7073,
  "tar</w>": 6977,
  "ãĤ¢": 26560,
  "boxes</w>": 8350,
  "leche</w>": 46197,
  "welcomed</w>": 12590,
  "cats": 38800,
  "roadster</w>": 28920,
  "integration</w>": 12583,
  "buck</w>": 11433,
  "zappa</w>": 46592,
  "rope</w>": 9953,
  "ch": 540,
  "donneinarte</w>": 40193,
  "erick</w>": 36959,
  "thrown</w>": 15079,
  "neither</w>": 14398,
  "antes</w>": 14927,
  "norris</w>": 21814,
  "overall</w>": 6914,
  "synergy</w>": 32012,
  "grand": 3058,
  "footy</w>": 18922,
  "symbol</w>": 13085,
  "fernandez</w>": 23436,
  "immac": 25085,
  "peaked</w>": 36391,
  "mond</w>": 4475,
  "jee": 29250,
  "bloodh": 48480,
  "gotham": 46123,
  "snf</w>": 47651,
  "dari</w>": 14552,
  "gz</w>": 35841,
  "enh": 7449,
  "weets</w>": 13454,
  "guire</w>": 18209,
  "crayon</w>": 41801,
  "blizzard</w>": 16111,
  "slv</w>": 45526,
  "blk": 42950,
  "srugby</w>": 40526,
  "ruben</w>": 29722,
  "pumping</w>": 25150,
  "ðŁĩ": 1173,
  "shoppe</w>": 38236,
  "royce</w>": 18444,
  "foto</w>": 12823,
  "miller</w>": 5733,
  "scape</w>": 12314,
  "hart": 9335,
  "researching</w>": 24544,
  "impressed</w>": 9689,
  "tease</w>": 25163,
  "laureate</w>": 25675,
  "northwest</w>": 12894,
  "champs</w>": 6240,
  "lovehim</w>": 45733,
  "kum</w>": 28148,
  "coven": 12483,
  "lauren": 10456,
  "turn": 5522,
  "ter": 704,
  "tid</w>": 23727,
  "roads</w>": 6189,
  "economics</w>": 12625,
  "folks</w>": 5422,
  "lid</w>": 17678,
  "ðŁĳĳ</w>": 8717,
  "paddy</w>": 19855,
  "brentwood</w>": 33108,
  "chees": 15182,
  "rapid": 47697,
  "harlow</w>": 34113,
  "gateway</w>": 14943,
  "dle</w>": 3287,
  "bertie</w>": 47182,
  "dunes</w>": 23526,
  "yuk": 17037,
  "roswell</w>": 45116,
  "footwear</w>": 22772,
  "cosplay": 42401,
  "excellency</w>": 36503,
  "elets</w>": 19400,
  "ara": 24161,
  "birthday</w>": 1166,
  "ru</w>": 13735,
  "infosec</w>": 17863,
  "walls</w>": 8258,
  "jordani": 46898,
  "sre": 17748,
  "hearing": 46353,
  "gel": 7343,
  "purch": 8384,
  "hugely</w>": 24648,
  "institutions</w>": 15207,
  "reconciliation</w>": 26451,
  "marshals</w>": 44175,
  "seriea</w>": 32660,
  "vader</w>": 21908,
  "pests</w>": 41919,
  "digestion</w>": 40533,
  "sagin": 47097,
  "tob</w>": 24260,
  "oli</w>": 8810,
  "congo</w>": 20334,
  "conco": 43034,
  "triton</w>": 45437,
  "hai": 8734,
  "pietro</w>": 42169,
  "inist</w>": 30976,
  "endez</w>": 43850,
  "qq": 31960,
  "pilgrimage</w>": 24335,
  "wwfc</w>": 42681,
  "vase</w>": 20431,
  "brandon</w>": 9166,
  "daisy</w>": 12865,
  "flask</w>": 36194,
  "Ĥâĸ": 29036,
  "ðŁĴªðŁı½</w>": 31111,
  "tweeps</w>": 14928,
  "neat": 43201,
  "ips</w>": 26910,
  "poke</w>": 23186,
  "categori": 40117,
  "cog</w>": 35960,
  "strategic</w>": 10246,
  "à¹Ģ": 13729,
  "satisfaction</w>": 19925,
  "concerned</w>": 12020,
  "acking</w>": 5515,
  "colo": 7300,
  "francesca</w>": 32327,
  "remarkable</w>": 12404,
  "ldnont</w>": 25827,
  "economic</w>": 5259,
  "taj": 28937,
  "polit": 2247,
  "floor</w>": 4125,
  "dile": 25428,
  "welcome</w>": 1881,
  "cathy": 40326,
  "mson": 27773,
  "toronto</w>": 4514,
  "asr</w>": 48052,
  "legate</w>": 46009,
  "Ã¶": 7255,
  "icec": 13636,
  "avengers</w>": 12016,
  "teng</w>": 28474,
  "gating</w>": 27561,
  "nxt</w>": 17804,
  "perceptions</w>": 38138,
  "uma": 29982,
  "mailing</w>": 26680,
  "supported</w>": 8038,
  "!!!!!</w>": 5203,
  "meg</w>": 16186,
  "war": 984,
  "lov": 8923,
  "chaser</w>": 29560,
  "pet</w>": 3703,
  "kushner</w>": 36716,
  "ideal</w>": 8789,
  "chased</w>": 30342,
  "Ä</w>": 384,
  "theday</w>": 4408,
  "mankind</w>": 24155,
  "thium</w>": 21804,
  "burton</w>": 12704,
  "compet": 2932,
  "toni": 17766,
  "mo</w>": 2080,
  "ãĤĬãģ": 40500,
  "suspects</w>": 18265,
  "minister</w>": 3569,
  "rande</w>": 21469,
  "futures</w>": 13488,
  "slc</w>": 21972,
  "arton</w>": 46744,
  "rika</w>": 28580,
  "procedure</w>": 20163,
  "gibraltar</w>": 23988,
  "heart</w>": 1936,
  "thar</w>": 38843,
  "marvin</w>": 19675,
  "production</w>": 4146,
  "rum</w>": 11233,
  "sao</w>": 28026,
  "haras": 26644,
  "qatar": 32804,
  "luton</w>": 28288,
  "hp": 23753,
  "ile": 18398,
  "sustainability</w>": 9635,
  "relevance</w>": 31400,
  "dric</w>": 23448,
  "tre": 975,
  "°:</w>": 21787,
  "beav": 23260,
  "tbh</w>": 13238,
  "raja": 46069,
  "__:</w>": 47043,
  "vica</w>": 46168,
  "mang": 25616,
  "tment</w>": 26485,
  "opp": 2020,
  "beater</w>": 41974,
  "cricket</w>": 5373,
  "matthi": 29853,
  "macy</w>": 17113,
  "dÃ©": 25466,
  "angelina</w>": 28890,
  "marnock</w>": 48305,
  "exercise</w>": 7016,
  "aje": 48818,
  "flirt</w>": 38352,
  "bvb</w>": 22454,
  "icn</w>": 44516,
  "ri": 553,
  "manned</w>": 26139,
  "ott": 10167,
  "moses</w>": 18451,
  "restaurants</w>": 11714,
  "theast</w>": 8378,
  "confrontation</w>": 41478,
  "many": 28484,
  "hurting</w>": 24017,
  "gaya</w>": 39477,
  "wizard": 30490,
  "damn</w>": 4451,
  "clearance</w>": 17959,
  "fadnavis</w>": 38945,
  "bag": 3408,
  "drought</w>": 13935,
  "drow": 21159,
  "aviator</w>": 38921,
  "striking</w>": 13392,
  "mered": 24657,
  "ackeray</w>": 41843,
  "retweeted</w>": 12705,
  "representatives</w>": 15591,
  "traumatic</w>": 29958,
  "elier</w>": 14634,
  "favs</w>": 18879,
  "han": 1545,
  "chat</w>": 2402,
  "humans</w>": 8324,
  "hardwood</w>": 28167,
  "courses</w>": 9464,
  "posture</w>": 29681,
  "ssil</w>": 15026,
  "bartlett</w>": 37130,
  "anny</w>": 5291,
  "centre</w>": 2916,
  "ndp</w>": 19257,
  "remover</w>": 44267,
  "licensing</w>": 24219,
  "byrd</w>": 30369,
  "consu": 4689,
  "tuc": 14456,
  "hahahahahahaha</w>": 43653,
  "agm</w>": 19162,
  "kori</w>": 42842,
  "registered</w>": 10254,
  "input</w>": 16952,
  "queens": 22943,
  "instrument": 42196,
  "netany": 23137,
  "tibetan</w>": 24057,
  "hubb": 23183,
  "assi": 2907,
  "luck</w>": 2820,
  "ðŁĩ¿": 25520,
  "cels</w>": 24021,
  "besti": 35210,
  "dono": 14840,
  "holidays</w>": 5372,
  "sel</w>": 4098,
  "slice</w>": 13431,
  "ðŁĺĪ</w>": 9756,
  "sexually</w>": 23032,
  "willing</w>": 11718,
  "okstate</w>": 36356,
  "unbeliev": 11383,
  "bab</w>": 19039,
  "zani</w>": 45373,
  "deleg": 8046,
  "goftheday</w>": 39360,
  "bound": 15140,
  "alan</w>": 5773,
  "kv": 27594,
  "rently</w>": 2615,
  "blom": 48996,
  "moe": 38655,
  "olf</w>": 16346,
  "ðŁİĤ": 13026,
  "requests</w>": 17087,
  "mpy</w>": 17192,
  "perennial</w>": 34038,
  "showbiz</w>": 34156,
  "ruption</w>": 35403,
  "vit": 4056,
  "maria</w>": 6595,
  "alma</w>": 18337,
  "testim": 12553,
  "webinar</w>": 8921,
  "liner</w>": 11618,
  "liance</w>": 40864,
  "hebrides</w>": 45121,
  "enquiries</w>": 31901,
  "restorative</w>": 46509,
  "og</w>": 8555,
  "angelo</w>": 14342,
  "decreased</w>": 33913,
  "zo</w>": 5056,
  "motivational": 32832,
  "dling</w>": 18221,
  "spain</w>": 5083,
  "winter": 7340,
  "ibm</w>": 13918,
  "respir": 20771,
  "oomf</w>": 40607,
  "hobbies</w>": 36370,
  "juda": 32478,
  "keys</w>": 6355,
  "neon": 21043,
  "ultrasound</w>": 29717,
  "bandwidth</w>": 48859,
  "parents</w>": 3731,
  "apro": 42712,
  "novel</w>": 6080,
  "agra</w>": 29830,
  "mohawk</w>": 34942,
  "stored</w>": 28257,
  "ze": 2254,
  "eames</w>": 49072,
  "motivates</w>": 44684,
  "korean": 31949,
  "remi</w>": 41693,
  "murdering</w>": 36055,
  "sequences</w>": 47306,
  "availability</w>": 17551,
  "hop": 10848,
  "metho": 5770,
  "yesss</w>": 36210,
  "dollars</w>": 10669,
  "hodgson</w>": 37044,
  "cilantro</w>": 34568,
  "usf": 32385,
  "gaelic</w>": 31173,
  "deon": 31466,
  "Ä±</w>": 41901,
  "added</w>": 4149,
  "ðŁİīðŁİĬ": 31662,
  "proof": 17020,
  "marker</w>": 18170,
  "ãģ¨": 34671,
  "fife</w>": 24374,
  "lewishamilton</w>": 42960,
  "minindia</w>": 28458,
  "'âĢ¦</w>": 42120,
  "fck</w>": 49263,
  "gio": 16329,
  "referees</w>": 45583,
  "acele": 40868,
  "colony</w>": 18767,
  "faves</w>": 18003,
  "kingfisher</w>": 34330,
  "escapes</w>": 29916,
  "experienced</w>": 10417,
  "wis": 3392,
  "mustangs</w>": 22500,
  "osborne</w>": 22402,
  "oracle": 37308,
  "Ħ</w>": 482,
  "alger": 18568,
  "patriot</w>": 15692,
  "fevre</w>": 43861,
  "shapiro</w>": 32110,
  "Ä±": 18562,
  "operator</w>": 15972,
  "poems</w>": 15577,
  "insured</w>": 31321,
  "illumin": 11446,
  "soir</w>": 43427,
  "ongchang</w>": 35071,
  "jaguar</w>": 14757,
  "kickstarter</w>": 13228,
  "tatted</w>": 41605,
  "scented</w>": 27190,
  "amber": 18292,
  "eatlocal</w>": 42868,
  "necklaces</w>": 32276,
  "existential</w>": 38752,
  "hse</w>": 34057,
  "wed</w>": 3478,
  "trophies</w>": 20998,
  "financial": 19783,
  "storms</w>": 6464,
  "âĻª": 27364,
  "gento</w>": 28320,
  "liam": 5258,
  "oaxaca</w>": 47818,
  "identifies</w>": 35712,
  "overdose</w>": 27017,
  "mann": 19396,
  "entertainer</w>": 28674,
  "enlar": 38136,
  "shag": 22439,
  "S</w>": 306,
  "cost": 11360,
  "Ę</w>": 468,
  "portraits</w>": 14203,
  "ª</w>": 359,
  "smooth": 10958,
  "yell</w>": 30824,
  "more": 5434,
  "reggae": 37821,
  "screens</w>": 12689,
  "mise</w>": 17267,
  "westlake</w>": 41535,
  "sask</w>": 30416,
  "nighting": 36211,
  "woodward</w>": 27419,
  "privileged</w>": 18166,
  "tallest</w>": 19774,
  "not": 2534,
  "Ķï¸ı</w>": 7443,
  "contamination</w>": 31770,
  "priory</w>": 38665,
  "siemens</w>": 30147,
  "izzy</w>": 28861,
  "organ</w>": 13213,
  "ler": 5587,
  "holics</w>": 29782,
  "mayward</w>": 23519,
  "mete": 11226,
  "uklabour</w>": 36902,
  "dah": 16976,
  "dina</w>": 36815,
  "ruff": 28177,
  "journos</w>": 46437,
  "msg": 44430,
  "ici": 948,
  "gerrard</w>": 26538,
  "tunnel</w>": 11096,
  "vein</w>": 29169,
  "responsibilities</w>": 30375,
  ",'</w>": 10599,
  "im</w>": 1496,
  "thand": 44465,
  "recei": 2148,
  "alber": 6413,
  "rass</w>": 45654,
  "phys": 3734,
  "pains</w>": 25639,
  "scien": 39261,
  "spoli</w>": 34301,
  "hippo</w>": 36729,
  "-*</w>": 21527,
  "banana</w>": 8922,
  "propane</w>": 45546,
  "eck": 25866,
  "brun": 6870,
  "aler</w>": 27335,
  "fass": 42398,
  "sav</w>": 26533,
  "))": 13720,
  "Î": 138,
  "articul": 40343,
  "decath": 47455,
  "stoner</w>": 29115,
  "congestion</w>": 24432,
  "cmdr</w>": 48250,
  "cantwait</w>": 33760,
  "moray</w>": 44569,
  "roberts</w>": 10366,
  "inch</w>": 6523,
  "vial</w>": 39951,
  "isk</w>": 30171,
  "horizon</w>": 11920,
  "penelope</w>": 36703,
  "bro": 927,
  "lahore</w>": 16733,
  "battalion</w>": 20820,
  "lar": 1592,
  "je</w>": 8776,
  "monument</w>": 12019,
  "research": 25694,
  "recipes</w>": 9243,
  "bold</w>": 8911,
  "connol": 27739,
  "privilege</w>": 11537,
  "dyce</w>": 48325,
  "gmb": 35934,
  "linton</w>": 36479,
  "angelica</w>": 38582,
  "fetal</w>": 42031,
  "medical": 18432,
  "slash</w>": 19749,
  "sud</w>": 33714,
  "vocalist</w>": 22102,
  "madurai</w>": 49159,
  "allblacks</w>": 47728,
  "usnews</w>": 43752,
  "mushrooms</w>": 14730,
  "chairing</w>": 42205,
  "litre</w>": 25786,
  "users</w>": 7433,
  "exhausted</w>": 21741,
  "acceptance</w>": 17090,
  "argyll</w>": 40667,
  "wham": 42506,
  "concentrate</w>": 30846,
  "strains</w>": 38067,
  "lough": 21927,
  "osity</w>": 12730,
  "disobe": 42841,
  "pedestrian</w>": 18256,
  "open</w>": 1488,
  "touchscreen</w>": 39095,
  "wali": 37576,
  "thirst</w>": 23563,
  "bye": 20076,
  "rands</w>": 39153,
  "descrip": 41832,
  "onto": 11745,
  "ilysm</w>": 29228,
  "shakespeare": 22499,
  "awarenessmonth</w>": 34278,
  "summit": 30011,
  "kd</w>": 15597,
  "sarmy</w>": 20954,
  "property": 26486,
  "clifton</w>": 23878,
  "insights</w>": 8729,
  "famili": 8488,
  "heavenly</w>": 19117,
  "perez</w>": 15107,
  "allan</w>": 15404,
  "exports</w>": 20088,
  "âĻ¥âĻ¥</w>": 19604,
  "isance</w>": 46893,
  "kak": 10401,
  "judd</w>": 29770,
  "matthe": 5116,
  "kne": 6358,
  "subram": 49207,
  "norm</w>": 22457,
  "à¥ĩ": 48612,
  "replac": 6069,
  "mohamed</w>": 18472,
  "stennis</w>": 45636,
  "ernest</w>": 23006,
  "pikach": 27268,
  "fashionblogger</w>": 31726,
  "craig</w>": 8061,
  "jans</w>": 22578,
  "carries</w>": 17982,
  "rely</w>": 4158,
  "deton": 39335,
  "coun": 939,
  "panhandle</w>": 40919,
  "ory": 16983,
  "stonewall</w>": 39688,
  "lers</w>": 6247,
  "little</w>": 1274,
  "infamous</w>": 18688,
  "founders</w>": 14602,
  "brom</w>": 33296,
  "allo</w>": 18389,
  "stash</w>": 27711,
  "condomin": 42589,
  "ends</w>": 1339,
  "rednationrising</w>": 28262,
  "ðŁĺļ": 24897,
  "redo</w>": 42524,
  "ank": 13339,
  "mcne": 42545,
  "detri": 47951,
  "label": 12235,
  "mingham</w>": 7590,
  "acia</w>": 30163,
  "arms</w>": 5706,
  "humbling</w>": 39757,
  "website</w>": 3364,
  "meli": 28885,
  "nar": 2977,
  "portage</w>": 32087,
  "canelo</w>": 43210,
  "distric": 3208,
  "tons</w>": 7555,
  "hare": 27903,
  "salom": 38268,
  "pere</w>": 36300,
  "warri": 4109,
  "rainbow</w>": 6286,
  "gul</w>": 21350,
  "wildlifewednesday</w>": 48537,
  "assignment</w>": 17342,
  "bbc": 5123,
  "stands</w>": 6446,
  "dx</w>": 15679,
  "undergo</w>": 31545,
  "wild": 2780,
  "later</w>": 2941,
  "kashi": 47945,
  "alife": 41347,
  "naturals</w>": 44686,
  "employ</w>": 39626,
  "extras</w>": 29817,
  "council</w>": 3620,
  "gopackgo</w>": 47719,
  ",-</w>": 29821,
  "moja": 49055,
  "~\"</w>": 48442,
  "eri</w>": 9509,
  "lam</w>": 5704,
  "grapes</w>": 18580,
  "teatro</w>": 35756,
  "look": 8874,
  "int": 1828,
  "boehner</w>": 44599,
  "rolltide</w>": 28101,
  "evangel": 20518,
  "harare</w>": 43562,
  "mgmt</w>": 22288,
  "magical": 36408,
  "ferrell</w>": 41112,
  "countess</w>": 46276,
  "munchkin</w>": 41305,
  "sturi": 21747,
  "mann</w>": 4783,
  "moto": 10646,
  "âļ½</w>": 13173,
  "strade</w>": 48968,
  "most": 7034,
  "thank</w>": 1144,
  "ðŁ¥³</w>": 28055,
  "ons": 26076,
  "cin</w>": 25367,
  "tighter</w>": 48193,
  "high": 1487,
  "sinha</w>": 29416,
  "urday</w>": 19742,
  "apollo": 48213,
  "blah</w>": 29212,
  "ua</w>": 8441,
  "kylie": 28282,
  "advisors</w>": 23197,
  "acid": 35474,
  "nyu": 43143,
  "gervais</w>": 36527,
  "twitch": 13251,
  "wheres": 46345,
  "gastron": 30699,
  "arbitr": 22702,
  "horizontal</w>": 25775,
  "surf</w>": 10322,
  "smashbros</w>": 44897,
  "apan</w>": 36562,
  "âĦ": 8604,
  "hold": 36496,
  "deleting</w>": 41857,
  "soaked</w>": 26592,
  "muy</w>": 44625,
  "âŃĲâŃĲ": 32663,
  "mita</w>": 47514,
  "gote</w>": 49345,
  "pusa</w>": 40825,
  "radiodisney</w>": 36483,
  "cauli": 20123,
  "characteri": 20920,
  "theat": 2263,
  "final": 11968,
  "hose</w>": 19662,
  "stopp": 15738,
  "jaime</w>": 24716,
  "bowls</w>": 17787,
  "nue": 22834,
  "iselle</w>": 48491,
  "believer</w>": 26057,
  "cent": 1784,
  "ddled</w>": 38392,
  "reali": 4185,
  "ativity</w>": 25166,
  "??\"</w>": 44996,
  "halal</w>": 34216,
  "cl</w>": 6482,
  "tombs</w>": 48613,
  "to": 580,
  "seasonal</w>": 14215,
  "laurie</w>": 20326,
  "innings</w>": 11580,
  "bute</w>": 39240,
  "amu</w>": 32336,
  "creams</w>": 41447,
  "annah": 39166,
  "bata</w>": 39277,
  "letsgo": 16967,
  "catholic": 20382,
  "dream</w>": 2984,
  "punta</w>": 34112,
  "translucent</w>": 49052,
  "activists</w>": 12649,
  "sign": 5538,
  "bh</w>": 13603,
  "priyan": 16488,
  "realising</w>": 39537,
  "lang</w>": 8578,
  "ctv": 21213,
  "fid": 34197,
  "digitalindia</w>": 46630,
  "leverage</w>": 24030,
  "subsidiary</w>": 45506,
  "abled</w>": 10655,
  "cyn": 14324,
  "jk</w>": 9702,
  "indulge</w>": 24851,
  "colts</w>": 16135,
  "athe": 8963,
  "cling</w>": 4760,
  "¡": 94,
  "shock</w>": 8736,
  "angeli": 15265,
  "ungsoo</w>": 25582,
  "strongest</w>": 16171,
  "haven</w>": 3871,
  "concern</w>": 12928,
  "soloist</w>": 46391,
  "adol": 33512,
  "free": 2065,
  "tah</w>": 7090,
  "puma</w>": 20858,
  "token": 32634,
  "yelled</w>": 39199,
  "rend</w>": 22851,
  "rms</w>": 40529,
  "tona</w>": 13459,
  "unions</w>": 18353,
  "aoc</w>": 31918,
  "clean": 3572,
  "anni": 2438,
  "lars</w>": 8669,
  "orities</w>": 7903,
  "subs</w>": 16398,
  "handcrafted</w>": 22185,
  "yaa</w>": 34498,
  "heating</w>": 12478,
  "efron</w>": 48111,
  "khil": 34101,
  "grooming</w>": 25575,
  "zone</w>": 4442,
  "rosario</w>": 33640,
  "mel</w>": 6834,
  "stown": 28071,
  "show": 2133,
  "categories</w>": 19971,
  "sudan": 31149,
  "cindy</w>": 18532,
  "jinx</w>": 42977,
  "coulter</w>": 42291,
  "salad</w>": 6188,
  "atz</w>": 30432,
  "loun": 6466,
  "fellows</w>": 15766,
  "reflects</w>": 15821,
  "ush": 12001,
  "uploading</w>": 30145,
  "uwu</w>": 35544,
  "erupted</w>": 48862,
  "cord": 40893,
  "fais": 23542,
  "pants</w>": 5003,
  "lantic": 32601,
  "am": 548,
  "escaped</w>": 18707,
  "losses</w>": 16909,
  "shoppers</w>": 22316,
  "assy</w>": 12963,
  "fleece</w>": 25038,
  "owns</w>": 17533,
  "anonym": 38605,
  "kenny": 20185,
  "carrier</w>": 12308,
  "peacefully</w>": 30530,
  "hyde": 46484,
  "trafficking</w>": 15983,
  "sheryl</w>": 39773,
  "muchas</w>": 26278,
  "subtle</w>": 16536,
  "wand</w>": 28559,
  "irst</w>": 32701,
  "sydney": 15878,
  "bullpen</w>": 38081,
  "exist": 10899,
  "carpen": 15584,
  "ashamed</w>": 20633,
  "till</w>": 4267,
  "did</w>": 1335,
  "bg": 16674,
  "heartnews</w>": 40426,
  "yesterdays</w>": 36238,
  "amic": 25824,
  "customizable</w>": 48253,
  "blinds</w>": 32449,
  "dap": 12149,
  "onlyin": 32947,
  "roof</w>": 6449,
  "footpath</w>": 48858,
  "coworking</w>": 36034,
  "horses</w>": 8809,
  "narcissi": 35442,
  "initiative</w>": 8152,
  "androidgames</w>": 46572,
  "person": 3510,
  "ê²": 35555,
  "investigate</w>": 15703,
  "enviro</w>": 46200,
  "harcourt</w>": 48093,
  "stumbled</w>": 21776,
  "week</w>": 994,
  "workinprogress</w>": 46086,
  "pesky</w>": 42512,
  "gren</w>": 20119,
  "âĻ»ï¸ı</w>": 46075,
  "genome</w>": 23991,
  "streetart</w>": 12948,
  "ilers</w>": 8975,
  "gene": 5822,
  "louisville</w>": 13860,
  "vantage</w>": 31749,
  "gopro</w>": 17511,
  "eurozone</w>": 42555,
  "hofer</w>": 38654,
  "wold</w>": 42399,
  "installing</w>": 18301,
  "onne</w>": 23466,
  "thou": 1513,
  "dancehall</w>": 33300,
  "backtoschool</w>": 28730,
  "ðŁĴĲ</w>": 20554,
  "ubc</w>": 29455,
  "zimbabwe": 45668,
  "kab": 6554,
  "arnau": 45556,
  "sionally</w>": 30754,
  "I</w>": 296,
  "ims</w>": 17800,
  "natgeo</w>": 25046,
  "articho": 30937,
  "rookie</w>": 9771,
  "savi": 14721,
  "ðŁ¤«</w>": 47671,
  "tible</w>": 11453,
  "krispy</w>": 49292,
  "rlly</w>": 43222,
  "brighten</w>": 18208,
  "hurling</w>": 24738,
  "seriously</w>": 4885,
  "cester</w>": 12718,
  "mv": 10580,
  "writes</w>": 8023,
  "clay": 10402,
  "prefer</w>": 11450,
  "proclaimed</w>": 34489,
  "hiko</w>": 48708,
  "icos</w>": 32002,
  "jubi": 15485,
  "britannia</w>": 36188,
  "aldub": 10532,
  "silhouette</w>": 26149,
  "ffxv</w>": 46786,
  "speed": 6860,
  "publication</w>": 13538,
  "hydr": 8031,
  "amaya</w>": 47210,
  "leed</w>": 40206,
  "unlock</w>": 18649,
  "½</w>": 377,
  "onix</w>": 27370,
  "setting</w>": 5264,
  "bluec": 43194,
  "yankees</w>": 11889,
  "ymca</w>": 22369,
  "ðŁ¥ĩ</w>": 20069,
  "theworld": 44988,
  "yash": 30216,
  "diameter</w>": 27189,
  "rential</w>": 31692,
  "adorned</w>": 44953,
  "pleasures</w>": 29513,
  "thru</w>": 6162,
  "briefs</w>": 29557,
  "ace": 2675,
  "cookie</w>": 9367,
  ".\"</w>": 1081,
  "angers</w>": 29756,
  "academia</w>": 22662,
  "ðŁĴĻ": 5305,
  "cellar</w>": 24282,
  "thanx</w>": 25095,
  "depart</w>": 30649,
  "soaking</w>": 26750,
  "encro": 45822,
  "montage</w>": 32325,
  "endorsing</w>": 46779,
  "andersen</w>": 32661,
  "indoor": 44478,
  "aser": 39615,
  "rector</w>": 41585,
  "belgi": 7001,
  "mc</w>": 4126,
  "dallas": 27414,
  "jordi</w>": 44795,
  "frankly</w>": 38015,
  "omnic": 48383,
  "jfk</w>": 18486,
  "ssummit</w>": 49301,
  "architectural</w>": 15360,
  "vae</w>": 39384,
  "travels</w>": 11472,
  "cutt</w>": 47647,
  "mascara</w>": 31635,
  "enlightened</w>": 44032,
  "tablets</w>": 20436,
  "facep": 45285,
  "prison</w>": 6622,
  "alo</w>": 6183,
  "herd</w>": 18589,
  "taunton</w>": 40681,
  "puertor": 22757,
  "fanatics</w>": 39610,
  "arag": 41502,
  "gustav": 32062,
  "eves</w>": 7323,
  "íĥ": 15012,
  "procedu": 18204,
  "layoffs</w>": 29019,
  "tromb": 32390,
  "mixer</w>": 17200,
  "phone</w>": 1951,
  "esp": 3849,
  "barista</w>": 31078,
  "antoine</w>": 25188,
  "affiliation</w>": 48377,
  "nhljets</w>": 49357,
  "jetblue</w>": 45021,
  "collaborating</w>": 25545,
  "rue": 38024,
  "decide</w>": 8447,
  "royal": 6691,
  "ģ": 223,
  "addy</w>": 24746,
  "rsa</w>": 29437,
  "cook": 9726,
  "clubbing</w>": 48128,
  "dumps</w>": 45804,
  "benedict": 47896,
  "linebacker</w>": 29848,
  "ady": 41446,
  "sprink": 15817,
  "homelessness</w>": 19851,
  "driving": 37800,
  "itions</w>": 5540,
  "comic</w>": 4962,
  "maddow</w>": 32644,
  "insig": 40503,
  "luscious</w>": 39935,
  "election</w>": 4247,
  "characterdesign</w>": 38149,
  "thevoice</w>": 30258,
  "prolifer": 39018,
  "abundance</w>": 23236,
  "dumb": 15901,
  "ðŁĳ©âĢį": 26304,
  "lemonade</w>": 18884,
  "court": 16837,
  "sedan</w>": 24237,
  "maduro</w>": 32912,
  "nurses</w>": 12938,
  "fullerton</w>": 42822,
  "impeachtrump</w>": 38006,
  "kut</w>": 36965,
  "messy</w>": 15987,
  "pharmaceu": 19490,
  "supp": 1023,
  "avan": 27971,
  "lanka</w>": 16221,
  "wwwbigbaldhead</w>": 30761,
  "zeit</w>": 37906,
  "routing</w>": 44086,
  "olivier</w>": 23891,
  "fp": 28058,
  "homies</w>": 18893,
  "skater</w>": 30337,
  "pinkfloyd</w>": 48520,
  "underthe": 41161,
  "outre": 14373,
  "wiltshire</w>": 28025,
  "yot": 22875,
  "snsd</w>": 27961,
  "hie</w>": 15763,
  "gentle": 7262,
  "meatballs</w>": 29233,
  "participated</w>": 14252,
  "chs</w>": 8391,
  "sixty</w>": 32588,
  "saree</w>": 30860,
  "paddington</w>": 33162,
  "tunes": 31688,
  "rimin": 11527,
  "beg": 2219,
  "render</w>": 13024,
  "isi": 7233,
  "livery</w>": 23248,
  "mika</w>": 25185,
  "rahul</w>": 17440,
  "met</w>": 2340,
  "wl": 13299,
  "vatican</w>": 21030,
  "crusade</w>": 36846,
  "ÃŃa</w>": 16609,
  "spe": 876,
  "bham</w>": 23491,
  "carried</w>": 12960,
  "undead</w>": 40105,
  "establishing</w>": 29420,
  "todd</w>": 9951,
  "bom": 3012,
  "free</w>": 1139,
  "gli": 5896,
  "pius</w>": 39988,
  "picks</w>": 8551,
  "isms</w>": 18700,
  "spieth</w>": 43254,
  "mpc</w>": 38560,
  "acqui": 12194,
  "fern</w>": 21685,
  "aps</w>": 8868,
  "ait": 25613,
  "areclipse</w>": 36030,
  "mzansi</w>": 43301,
  "explan": 13294,
  "jio</w>": 40501,
  "banjo</w>": 27014,
  "contribu": 4753,
  "supra</w>": 48485,
  "gypsy</w>": 22354,
  "kathle": 18721,
  "matty</w>": 29176,
  "fer": 1765,
  "enews</w>": 13442,
  "marlins</w>": 23309,
  "violated</w>": 38192,
  "ate": 992,
  "valenci": 34183,
  "compass</w>": 19438,
  "professor</w>": 6092,
  "todo</w>": 23087,
  "tony": 9150,
  "four": 5113,
  "albu": 2216,
  "welcometo": 47511,
  "rwby</w>": 39698,
  "mckinsey</w>": 48143,
  "mindy</w>": 38551,
  "vector</w>": 21533,
  "hours</w>": 2382,
  "gotti</w>": 41881,
  "poses</w>": 9773,
  "ennes</w>": 43613,
  "creature</w>": 14317,
  "sity</w>": 5477,
  "handwriting</w>": 29986,
  "pho": 816,
  "prosper</w>": 33526,
  "twin</w>": 6769,
  "plaster</w>": 31980,
  "wright</w>": 6991,
  "attendees</w>": 14648,
  "gri": 2169,
  "ption</w>": 3479,
  "reckless</w>": 26284,
  "joanne</w>": 25092,
  "portobello</w>": 48025,
  "C</w>": 290,
  "outtuesday</w>": 48692,
  "remaining</w>": 11392,
  "called</w>": 2726,
  "bayer": 48548,
  "pers": 3688,
  "roch": 23788,
  "cosby</w>": 30324,
  "therese</w>": 47996,
  "riding</w>": 6765,
  "jeky": 43893,
  "engine": 3355,
  "counc": 12927,
  "house": 4107,
  "gover</w>": 16759,
  "bp": 23410,
  "spins</w>": 27243,
  "oud</w>": 1359,
  "elec": 1564,
  "dining</w>": 8658,
  "refresh": 17836,
  "jyoti</w>": 48696,
  "adjustment</w>": 36081,
  "coffe": 2255,
  "beth</w>": 4892,
  "neb": 40209,
  "timers</w>": 44574,
  "debts</w>": 38770,
  "delete</w>": 19204,
  "johnnie</w>": 47947,
  "aviz</w>": 27607,
  "thursdaythoughts</w>": 14866,
  "oman</w>": 10871,
  "haired</w>": 27202,
  "firmly</w>": 29156,
  "/#</w>": 13217,
  "sash</w>": 35656,
  "odds</w>": 11555,
  "njcaa</w>": 48992,
  "fbi</w>": 10293,
  "priscilla</w>": 42396,
  "sale</w>": 1690,
  "sandra": 33733,
  "last</w>": 952,
  "shenzhen</w>": 38970,
  "industrial</w>": 7520,
  "deadline": 47209,
  "ortho": 11366,
  "braun": 39129,
  "renewable</w>": 15941,
  "reality": 46802,
  "hz</w>": 32533,
  "googleplay</w>": 37309,
  "dwp</w>": 46976,
  "ðŁĲ¼</w>": 46234,
  "tallade": 44220,
  "itsa": 45032,
  "trainee</w>": 25795,
  "chrissy": 44762,
  "pret": 9652,
  "bi</w>": 3035,
  "blaming</w>": 29287,
  "garza</w>": 49393,
  "gral</w>": 25631,
  "âľ¨": 7181,
  "hebrew</w>": 27298,
  "superior</w>": 13205,
  "bye</w>": 4460,
  "aroa</w>": 48209,
  "outsourcing</w>": 34543,
  "ovic</w>": 22417,
  "greenhouse</w>": 20819,
  "databases</w>": 48384,
  "capital</w>": 5439,
  "rame</w>": 47745,
  "perm</w>": 47847,
  "raji": 27569,
  "pump</w>": 9173,
  "maure": 25191,
  "âĽ": 7956,
  "pinst": 41173,
  "comic": 7729,
  "ske</w>": 25516,
  "israel": 20837,
  "scicomm</w>": 29573,
  "tutorials</w>": 30973,
  "tiem": 34762,
  "samu": 7646,
  "ext</w>": 20072,
  "vingne</w>": 42579,
  "really</w>": 1414,
  "making": 17976,
  "edged</w>": 39188,
  "alden": 17155,
  "sonic</w>": 9132,
  "dose</w>": 11497,
  "opposing</w>": 24376,
  "halloffame</w>": 48578,
  "pointer</w>": 29883,
  "rooms</w>": 6328,
  "stressing</w>": 35917,
  "ìĦ¸ë¸Ĳ</w>": 41415,
  "skeletal</w>": 37369,
  "inktober</w>": 9387,
  "broad": 3491,
  "text</w>": 4160,
  "license</w>": 10337,
  "hundreds</w>": 8879,
  "tucked</w>": 26923,
  "aties</w>": 40060,
  "laze</w>": 41559,
  "pathic</w>": 49025,
  "akhilesh</w>": 48495,
  "recon": 15371,
  "lets</w>": 3243,
  "âĿ¤ï¸ıâĿ¤ï¸ıâĿ¤ï¸ıâĿ¤ï¸ı": 39167,
  "crackers</w>": 26200,
  "arson</w>": 29937,
  "nutrition</w>": 7989,
  "orth": 22584,
  "tweeted</w>": 7841,
  "bill": 4444,
  "prepar": 4968,
  "views</w>": 2758,
  "fox</w>": 3240,
  "rina</w>": 12869,
  "flight": 24701,
  "icu</w>": 30443,
  "bild</w>": 35512,
  "manic": 23017,
  "gation</w>": 11095,
  "weiser</w>": 34833,
  "liest</w>": 14020,
  "tablet</w>": 12494,
  "sedona</w>": 46862,
  "blues": 17566,
  "crimson</w>": 19437,
  "omi</w>": 10341,
  "sachin": 47527,
  "scion</w>": 47208,
  "wad</w>": 30451,
  "california</w>": 3729,
  "ibrahim</w>": 20816,
  "mathematical</w>": 25609,
  "'\"</w>": 19479,
  "andra": 46795,
  "ðŁĲ¬</w>": 44238,
  "fascinated</w>": 32964,
  "stingray</w>": 43229,
  "stalker</w>": 26777,
  "spent</w>": 4429,
  "arg</w>": 27285,
  "ads</w>": 2485,
  "ping</w>": 2089,
  "friedman</w>": 29402,
  "chickens</w>": 21658,
  "adriana</w>": 41363,
  "lotte": 16535,
  "mclau": 32285,
  "gartner": 43334,
  "indi</w>": 46536,
  "satell": 9031,
  "thor": 4130,
  "nock</w>": 16993,
  "---></w>": 14518,
  "visual": 17004,
  "khalil</w>": 36229,
  "athletic": 33182,
  "maswar": 47887,
  "ratt": 20737,
  "marshal</w>": 26608,
  "claudi": 39439,
  "deserving</w>": 26615,
  "thornton</w>": 23592,
  "justin</w>": 4394,
  "jill": 24136,
  "abigail</w>": 25686,
  "ddad</w>": 39049,
  "ube</w>": 30892,
  "motorsports</w>": 24264,
  "âļ«": 15374,
  "boards</w>": 7963,
  "immunity</w>": 26254,
  "yemi</w>": 42267,
  "tr</w>": 6337,
  "mmmm": 36312,
  "\"....</w>": 37785,
  "www</w>": 9667,
  "dem</w>": 7825,
  "sages</w>": 25979,
  "tonyawards</w>": 46068,
  "dishon": 30777,
  "jacobson</w>": 46826,
  "ðŁĺ·": 37943,
  "¦": 99,
  "inmy": 42657,
  "araj</w>": 45142,
  "coll</w>": 23898,
  "foyle</w>": 47902,
  "shef": 8237,
  "attend": 9841,
  "flatt": 45498,
  "tsh": 42872,
  "shakti": 48593,
  "orig": 2273,
  "fake": 18794,
  "ðŁĴ§</w>": 34095,
  "kimber": 16796,
  "cedar</w>": 13799,
  "willow</w>": 15665,
  "ðŁĮİ": 31125,
  "quint": 26898,
  "apples</w>": 14032,
  "savory</w>": 32992,
  "tinker</w>": 40910,
  "clusive</w>": 41362,
  "pimp": 35789,
  "illustrator</w>": 16649,
  "ÄŁ": 26540,
  "edmonds</w>": 46520,
  "uments</w>": 25924,
  "supplies</w>": 9384,
  "srk": 44982,
  "eastbound</w>": 28827,
  "lob": 11197,
  "drau": 18621,
  "subsidies</w>": 37685,
  "cope</w>": 12564,
  "onga</w>": 30259,
  "artifacts</w>": 30249,
  "recipi": 10136,
  "wab": 19893,
  "sinks</w>": 32710,
  "distin": 11892,
  "metz</w>": 40506,
  "doctorwho</w>": 12996,
  "shul": 30721,
  "alar": 34333,
  "provider</w>": 14409,
  "goal": 9003,
  "uci": 46354,
  "verification</w>": 33521,
  "nbad": 43458,
  "sno</w>": 17802,
  "myself</w>": 3245,
  "bblo": 21231,
  "truss</w>": 46080,
  "lois</w>": 27040,
  "latino</w>": 19470,
  "kip</w>": 15986,
  "ema</w>": 11131,
  "bum</w>": 14226,
  "hardwork": 42554,
  "sli": 1811,
  "ðŁıĲ": 46334,
  "gums</w>": 46609,
  "lina</w>": 26110,
  "gosp": 9617,
  "thal</w>": 12323,
  "smoke": 20381,
  "kra": 5762,
  "shin": 5664,
  "vital</w>": 10585,
  "thrash</w>": 38262,
  "partnership</w>": 6123,
  "emir</w>": 47613,
  "rican</w>": 30958,
  "nach": 12168,
  "cardboard</w>": 19845,
  "leban": 9360,
  "ãĥİ</w>": 39967,
  "ideals</w>": 45096,
  "acquainted</w>": 40713,
  "eee</w>": 9361,
  "enya</w>": 36509,
  "guer": 10391,
  "karla</w>": 42309,
  "horror": 13787,
  "amar": 6424,
  "eria</w>": 11634,
  "âĿĦï¸ı</w>": 12402,
  "âĸ¶</w>": 21126,
  "sv</w>": 17083,
  "zimmer": 27452,
  "dartmouth</w>": 29667,
  "logg</w>": 43002,
  "ada</w>": 1886,
  "be": 571,
  "°</w>": 364,
  "membrane</w>": 34088,
  "invited</w>": 7731,
  "blan": 4609,
  "poise</w>": 45087,
  "cartridges</w>": 49249,
  "adaptation</w>": 16566,
  "puppet</w>": 18439,
  "drying</w>": 23203,
  "zack": 30567,
  "trays</w>": 39798,
  "%),</w>": 37819,
  "itian</w>": 23365,
  "atx": 34849,
  "parton</w>": 43245,
  "acknowledge</w>": 25209,
  "ffed</w>": 8448,
  "each</w>": 2416,
  "fv": 29795,
  "nectar</w>": 33683,
  "spans</w>": 45407,
  "vic</w>": 4412,
  "declining</w>": 29221,
  "zayn</w>": 10308,
  "parame": 27106,
  "swimsuit</w>": 25504,
  "boston": 11540,
  "charlie": 16764,
  "serve</w>": 2838,
  "vibe": 37974,
  "frying</w>": 38516,
  "shifting</w>": 21992,
  "stitching</w>": 45208,
  "cali": 2857,
  "ðŁĳıðŁı¼ðŁĳıðŁı¼</w>": 46712,
  "tlc</w>": 22047,
  "secret": 20710,
  "oop</w>": 7326,
  "nunes</w>": 40697,
  "âĿĹ</w>": 29079,
  "orthodox</w>": 19008,
  "stir</w>": 19564,
  "vintag": 10936,
  "equity</w>": 11293,
  "mentor": 45342,
  "sal</w>": 6126,
  "singing</w>": 5864,
  "ðŁ¤ĺ</w>": 17288,
  "braun</w>": 29309,
  "ðŁĴª</w>": 6440,
  "downloading</w>": 30519,
  "chargeable</w>": 35664,
  "sprint</w>": 10751,
  "racing": 23306,
  "survi": 3440,
  "strol": 30123,
  "kwon</w>": 36369,
  "mrc</w>": 25897,
  "early</w>": 2090,
  "fatty</w>": 22953,
  "freshly</w>": 16081,
  "mend": 8151,
  "quen</w>": 38324,
  "kidney": 37835,
  "malay</w>": 42430,
  "tico</w>": 17670,
  "gran</w>": 14493,
  "cleanliness</w>": 47886,
  "tempting</w>": 34876,
  "electronica</w>": 43119,
  "hazel": 19838,
  "tch</w>": 4048,
  "neu": 3855,
  "findia</w>": 47064,
  "cart": 27705,
  "nffc</w>": 27893,
  "blackandwhitephotography</w>": 27544,
  "lowest</w>": 12098,
  "physical</w>": 6671,
  "fanboy</w>": 43369,
  "poke": 6892,
  "variant</w>": 20293,
  "fremantle</w>": 48012,
  "miracle": 49208,
  "genre</w>": 14249,
  "trick</w>": 8172,
  "nippon</w>": 47960,
  "lach": 30558,
  "ronnie</w>": 16421,
  "cumbri": 32010,
  "condol": 18661,
  "southsudan</w>": 30419,
  "Ħ": 226,
  "ðŁĳīðŁı»</w>": 23481,
  "holt</w>": 18868,
  "alab": 6365,
  "airasia</w>": 48020,
  "lourdes</w>": 45071,
  "earn</w>": 8465,
  "landing</w>": 8292,
  "viaduct</w>": 39113,
  "stoner": 35131,
  "captain": 14958,
  "x": 87,
  "repar": 34065,
  "frequencies</w>": 45319,
  "fresno</w>": 20995,
  "grapefruit</w>": 28347,
  "garage</w>": 8474,
  "please</w>": 1474,
  "proudest</w>": 46806,
  "papp": 26361,
  "administrators</w>": 36123,
  "step": 15572,
  "chunky</w>": 27978,
  "sizing</w>": 28330,
  "cougs</w>": 28482,
  "peaches</w>": 27216,
  "retrogaming</w>": 11316,
  "ragon</w>": 34768,
  "taster</w>": 29743,
  "solution</w>": 4575,
  "heavy</w>": 4200,
  "janine</w>": 46896,
  "siena</w>": 33336,
  "stique</w>": 43305,
  "challenges</w>": 6280,
  "aim</w>": 11255,
  "ova</w>": 12762,
  "joaqu": 25140,
  "girl": 3914,
  "developing</w>": 8131,
  "scow": 27929,
  "incarcerated</w>": 49178,
  "jf</w>": 33718,
  "unda</w>": 39932,
  "constitution</w>": 12157,
  "rome</w>": 5243,
  "disrup": 14641,
  "seems</w>": 4453,
  "tomorrowspaper": 35005,
  "annex": 42958,
  "avs</w>": 31896,
  "med</w>": 2177,
  "grove": 31756,
  "olls</w>": 42697,
  "ghtful</w>": 8334,
  "redding</w>": 41061,
  "sweat</w>": 12663,
  "efcc</w>": 46087,
  "madre</w>": 42130,
  "illes</w>": 20037,
  "luigi</w>": 28444,
  "cull": 21880,
  "ssing</w>": 2112,
  "vot</w>": 48558,
  "barclay": 48877,
  "mong</w>": 43566,
  "badoo</w>": 33192,
  "assessments</w>": 32753,
  "tri</w>": 9618,
  "waxing</w>": 38781,
  "wholesale</w>": 18306,
  "ak": 819,
  "scrapped</w>": 43325,
  "whisperer</w>": 41368,
  "persist</w>": 40938,
  "wizar": 49121,
  "prison": 9281,
  "cx</w>": 14283,
  "intel</w>": 11426,
  "mfc</w>": 39474,
  "became</w>": 5464,
  "ad": 594,
  "taries</w>": 47291,
  "pers</w>": 10710,
  "tear": 15802,
  "daener": 46934,
  "volumes</w>": 22651,
  "laos</w>": 34353,
  "maur": 10574,
  "carson": 41766,
  "ens</w>": 1323,
  "biotechnology</w>": 40375,
  "silent</w>": 8487,
  "bucketlist</w>": 30778,
  "âĹĨ</w>": 48961,
  "poli</w>": 5414,
  "apparatus</w>": 37716,
  "croix</w>": 44735,
  "sherry</w>": 24689,
  "stylist</w>": 15928,
  "aq</w>": 26862,
  "napoleon</w>": 24969,
  "confused</w>": 10946,
  "czech": 43151,
  "expo</w>": 6344,
  "gaga</w>": 9782,
  "kart</w>": 21310,
  "cryst": 15891,
  "!</w>": 256,
  "element</w>": 14909,
  "stephan</w>": 37312,
  "staring</w>": 13800,
  "loretta</w>": 40863,
  "sou</w>": 24293,
  "mussels</w>": 33393,
  "ruck": 27449,
  "manor</w>": 13614,
  "democr": 3573,
  "kz</w>": 36848,
  "ðŁĮŁ": 13196,
  "freedoms</w>": 32500,
  "))</w>": 5167,
  "grayson</w>": 25471,
  "harm</w>": 14452,
  "salaries</w>": 33132,
  "rhinos</w>": 30671,
  "reu</w>": 40371,
  "ji</w>": 2697,
  "hydrated</w>": 23300,
  "harry</w>": 3600,
  "madein": 13670,
  "hemp</w>": 18467,
  "foodie</w>": 9847,
  "ðŁĴĶ</w>": 10704,
  "bowl": 26719,
  "part</w>": 1551,
  "strates</w>": 45724,
  "ddy": 14981,
  "discovery": 40491,
  "verst": 42484,
  "ðŁĴ°</w>": 14078,
  "gt": 16151,
  "tusc": 17909,
  "ãĥĥ": 28902,
  "atie</w>": 30137,
  "umass</w>": 39390,
  "wellington</w>": 15389,
  "bowlers</w>": 42632,
  "eil": 29457,
  "hari</w>": 8981,
  "jungkook</w>": 20040,
  "vimeo</w>": 48720,
  "squishy</w>": 47001,
  "remainder</w>": 41672,
  "spoil</w>": 25600,
  "jolie</w>": 31633,
  "etour</w>": 41462,
  "crushed</w>": 18270,
  "frost</w>": 11619,
  "sprayed</w>": 40022,
  "resurrection</w>": 25811,
  "concourse</w>": 37793,
  "texan</w>": 38386,
  "palma</w>": 29888,
  "inquirer</w>": 45172,
  "storymonth</w>": 23717,
  "spy</w>": 6656,
  "jt": 39480,
  "hou</w>": 10122,
  "chl</w>": 38592,
  "ðŁĳīðŁı½</w>": 38059,
  "tado</w>": 40846,
  "warned</w>": 16409,
  "uki": 37435,
  "demo": 2930,
  "opus</w>": 33295,
  "silva</w>": 16489,
  "daytona</w>": 16335,
  "glory": 36107,
  "goosebumps</w>": 32254,
  "afl": 15132,
  "emil": 26794,
  "stir": 12416,
  "areth</w>": 47725,
  "[...]</w>": 43790,
  "expectation</w>": 34273,
  "rd</w>": 1973,
  "gareth</w>": 18175,
  "tension</w>": 15221,
  "edmond</w>": 41581,
  "ttot</w>": 12480,
  "receiving</w>": 7252,
  "boycott": 31615,
  "copy": 11376,
  "cyberpunk</w>": 36896,
  "asdfghjkl</w>": 47660,
  "liveli": 26566,
  "craic</w>": 46962,
  "sci</w>": 8309,
  "bombed</w>": 24542,
  "overland</w>": 38808,
  "apc</w>": 20300,
  "conven": 7283,
  "futsal</w>": 20558,
  ",</w>": 267,
  "imperfect</w>": 46034,
  "ëª": 36311,
  "adverti": 5682,
  "stain": 3933,
  ",,": 21340,
  "region</w>": 4341,
  "paytm</w>": 45352,
  "goo</w>": 17882,
  "naked": 46371,
  "reuse</w>": 26535,
  "crust</w>": 23136,
  "rudy</w>": 22131,
  "demarcus</w>": 47873,
  "jailbreak</w>": 45990,
  "fathersday</w>": 16731,
  "airbnb</w>": 23098,
  "islife</w>": 26433,
  "daze</w>": 33591,
  "donate</w>": 6429,
  "hns</w>": 48412,
  "ancestors</w>": 24405,
  "starrer</w>": 41311,
  "rick</w>": 3064,
  "reached</w>": 6878,
  "falls</w>": 4778,
  "achim</w>": 42335,
  "realmadrid</w>": 27866,
  "zal</w>": 33298,
  "abstractart</w>": 31170,
  "sang": 13235,
  "tomy</w>": 18730,
  "illus</w>": 41386,
  "laurent</w>": 23226,
  "fication</w>": 4523,
  "lobe</w>": 46325,
  "rims</w>": 34327,
  "woodland</w>": 17447,
  "compli": 5270,
  "oooooooo": 15473,
  "âļªï¸ı": 22251,
  "invest</w>": 9716,
  "parting</w>": 32844,
  "dubois</w>": 48046,
  "ðŁİ©</w>": 37701,
  "earp</w>": 35296,
  "fundamentals</w>": 27887,
  "polari": 27919,
  "bobble</w>": 38796,
  "efan": 33556,
  "records</w>": 4529,
  "pash": 23936,
  "diagnostic</w>": 26351,
  "barn</w>": 10942,
  "benji</w>": 43548,
  "mcdowell</w>": 34119,
  "skrillex</w>": 43651,
  "appreciationday</w>": 37438,
  "technically</w>": 23180,
  "stokes</w>": 27512,
  "commando</w>": 31361,
  ",,,,</w>": 33225,
  "pleasure</w>": 5854,
  "orph": 17318,
  "prolonged</w>": 41972,
  "ðŁ¤Ķ": 12706,
  "aye</w>": 12446,
  "goss": 39734,
  "zhu": 42049,
  "hic</w>": 38079,
  "puffs</w>": 47453,
  "rothschild</w>": 45089,
  "cllr": 45743,
  "irrigation</w>": 23761,
  "ones</w>": 1575,
  "guyz</w>": 48170,
  "murdered</w>": 13158,
  "expanse</w>": 46886,
  "simplest</w>": 39588,
  "ramadan</w>": 15547,
  "filet</w>": 43155,
  "poor</w>": 3665,
  "monger</w>": 38928,
  "portray</w>": 46282,
  "altogether</w>": 45689,
  "destruc": 22945,
  "gloucester": 28133,
  "pelosi</w>": 22169,
  "guatemala</w>": 21670,
  "magnus</w>": 26275,
  "fleet</w>": 9147,
  "eae</w>": 27446,
  "filip": 14368,
  "camden": 38735,
  "aver": 8788,
  "revise</w>": 46801,
  "concordia</w>": 35492,
  "millionaires</w>": 47159,
  "snz</w>": 37678,
  "ðŁĶµ": 17531,
  "rhyme</w>": 37356,
  "bearable</w>": 38608,
  "palladium</w>": 37888,
  "parenting</w>": 14529,
  "lesn": 39568,
  "rai</w>": 9638,
  "humorous</w>": 38173,
  "lip</w>": 8546,
  "ili</w>": 19601,
  "ef": 1490,
  "doro": 15498,
  "craftbeer</w>": 12371,
  "humid</w>": 27447,
  "sula</w>": 26143,
  "tracker</w>": 18123,
  "survey</w>": 6809,
  "barnsley": 37109,
  "ggle</w>": 11430,
  "dischar": 22671,
  "tors</w>": 2546,
  "sparked</w>": 32647,
  "dut": 32625,
  "À": 124,
  "constant</w>": 13111,
  "mese</w>": 42018,
  "wildfires</w>": 29184,
  "ðŁĶģ</w>": 41299,
  "spitfire</w>": 31126,
  "rnli</w>": 29748,
  "clothing</w>": 7425,
  "berkeley": 46049,
  "beads</w>": 14099,
  "ðŁĲį</w>": 30177,
  "succes": 39019,
  "bebe</w>": 23331,
  "hormon": 27096,
  "florals</w>": 48331,
  "binge</w>": 22600,
  "refrigerator</w>": 36662,
  "ncwx</w>": 36166,
  "arist</w>": 12110,
  "kana</w>": 35178,
  "plugs</w>": 28083,
  "liners</w>": 24463,
  "congratulate</w>": 16633,
  "bestfan": 23880,
  "jem</w>": 37530,
  "statesman</w>": 35301,
  "burge": 20522,
  "andhi</w>": 21617,
  "foldable</w>": 48307,
  "zas</w>": 48261,
  "ðŁĵĿ": 31888,
  "leinster</w>": 32242,
  "possibilities</w>": 17932,
  "affairs</w>": 9830,
  "lasers</w>": 37060,
  "simil": 7202,
  "caitlin</w>": 26809,
  "sur</w>": 7123,
  "differ</w>": 34620,
  "smel": 28476,
  "globalization</w>": 47680,
  "police": 15535,
  "collect</w>": 10186,
  "bhagat</w>": 49136,
  "valentine</w>": 5876,
  "slovenia</w>": 21037,
  "spir": 3745,
  "nano</w>": 22006,
  "aluminium</w>": 23631,
  "eul": 46749,
  "aloud</w>": 30028,
  "logans</w>": 40752,
  "D": 35,
  "downstairs</w>": 28174,
  "aew</w>": 47108,
  "invaded</w>": 32596,
  "xmen</w>": 28708,
  "dz": 24421,
  "ually</w>": 10767,
  "thro</w>": 28624,
  "urbanart</w>": 40834,
  "deeplearning</w>": 24362,
  "gloves</w>": 12363,
  "feminists</w>": 38809,
  "ghibli</w>": 40555,
  "wichita</w>": 22566,
  "kyle</w>": 7539,
  "cornelius</w>": 45865,
  "ferry</w>": 10278,
  "paine</w>": 38069,
  "zachary</w>": 32401,
  "womens</w>": 14408,
  "ðŁĺ¡ðŁĺ¡": 37223,
  "gae</w>": 22003,
  "ext": 5711,
  "pue": 20161,
  "paid</w>": 5057,
  "visibility</w>": 15921,
  "tif</w>": 23216,
  "ashford</w>": 37796,
  "swansea</w>": 16567,
  "labelled</w>": 45188,
  "posts</w>": 7824,
  "barber": 19517,
  "screening</w>": 6688,
  "filming</w>": 6866,
  "djing</w>": 36113,
  "stjohn": 36153,
  "roth</w>": 19139,
  "jane</w>": 6736,
  "suggestion</w>": 23741,
  "cryptocurrencies</w>": 33329,
  "decor": 5148,
  "ry</w>": 913,
  "buttery</w>": 45535,
  "hoo": 2300,
  "buchanan</w>": 28975,
  "tack</w>": 34446,
  "valent</w>": 15300,
  "instructions</w>": 17040,
  "mushroom</w>": 13011,
  "rayon</w>": 47900,
  "live</w>": 1064,
  "cardam": 49008,
  "canadian</w>": 5255,
  "contempt</w>": 39293,
  "vie": 922,
  "chances</w>": 10870,
  "mmor": 36657,
  "matter": 30471,
  "serv</w>": 24571,
  "wer": 6316,
  "wyn": 11802,
  "etsy</w>": 6282,
  "confirmed</w>": 6346,
  "burke</w>": 15340,
  "jealous</w>": 11093,
  "ia</w>": 1073,
  "sate</w>": 35749,
  "hagan</w>": 47489,
  "jane": 12389,
  "faroo": 39147,
  "opy</w>": 21835,
  "diet</w>": 6582,
  "choke</w>": 30231,
  "cultivation</w>": 41539,
  "feeding</w>": 9879,
  "arvin": 16971,
  "akers</w>": 5788,
  "oec": 24288,
  "addison</w>": 32369,
  "manicure</w>": 33637,
  "tassel</w>": 49276,
  "imagine": 35752,
  "atp</w>": 19817,
  "abscbn": 44260,
  "mam</w>": 17778,
  "traditional": 41113,
  "ify</w>": 32807,
  "reggie</w>": 21872,
  "dir</w>": 8478,
  "burned</w>": 15022,
  "wta</w>": 25984,
  "saw": 12429,
  "informative</w>": 19364,
  "vt": 31732,
  "detro": 6210,
  "kany": 13590,
  "painted</w>": 6433,
  "cleaning</w>": 7210,
  "tally</w>": 16323,
  "lakewood</w>": 36417,
  "gills</w>": 48851,
  "spare</w>": 12615,
  "montan": 28405,
  "sema</w>": 31816,
  "dress</w>": 2595,
  "hards</w>": 44048,
  "decisive</w>": 28690,
  "rand": 5628,
  "assen</w>": 38651,
  "((": 22944,
  "steele</w>": 19460,
  "uman</w>": 27112,
  "retweet</w>": 3195,
  "dramati": 43512,
  "spokane</w>": 24528,
  "nacht</w>": 37261,
  "snhl</w>": 43093,
  ").</w>": 1818,
  "jeddah</w>": 40982,
  "niture</w>": 7840,
  "sier": 10028,
  "conte</w>": 26882,
  "shour</w>": 20025,
  "tek</w>": 18294,
  "probably</w>": 4047,
  "squid": 42057,
  "ust": 35501,
  "blackbird</w>": 38526,
  "keenan</w>": 36276,
  "lea": 2246,
  "impeach</w>": 43497,
  "veer": 21243,
  "trish": 40511,
  "truste": 17356,
  "wildly</w>": 35981,
  "boogie</w>": 22639,
  "ed</w>": 538,
  "opes</w>": 37258,
  "isai": 15365,
  "ner": 2064,
  "biased</w>": 22178,
  "fur": 2395,
  "wef</w>": 23313,
  "as</w>": 601,
  "patory</w>": 41859,
  "something</w>": 2006,
  "fit</w>": 2478,
  "brian</w>": 4989,
  "younger</w>": 10414,
  "kb": 27381,
  "chilled</w>": 23540,
  "motherland</w>": 46774,
  "xtreme</w>": 33483,
  "greyhounds</w>": 45718,
  "sche": 3038,
  "occi": 42994,
  "cour": 1391,
  "conline</w>": 37593,
  "poetry</w>": 6038,
  "hahahha</w>": 49205,
  "badger": 32686,
  "fla": 1577,
  "arguments</w>": 24693,
  "^</w>": 317,
  "depu": 6912,
  "nad": 6204,
  "endment</w>": 45894,
  "dotted</w>": 47950,
  "cinemato": 21919,
  "threatens</w>": 20555,
  "bridgewater</w>": 38732,
  "brandy</w>": 26232,
  "ðŁĺ³ðŁĺ³": 32592,
  "athan": 41260,
  "albeit</w>": 38984,
  "ars": 42815,
  "mur</w>": 18293,
  "sundays</w>": 15827,
  "eph</w>": 41240,
  "composite</w>": 21606,
  "Ð¾Ð": 20978,
  "would": 39873,
  "emoji</w>": 16327,
  "application</w>": 7241,
  "unidentified</w>": 35563,
  "comicart</w>": 46018,
  "succeed</w>": 13556,
  "ðŁĺį": 1796,
  "downton</w>": 42668,
  "rye</w>": 17409,
  "filthy</w>": 26899,
  "fertilizer</w>": 36786,
  "nbc": 9352,
  "stos</w>": 19281,
  "bestseller</w>": 25841,
  "indefinitely</w>": 43750,
  "loren</w>": 33398,
  "provost</w>": 36627,
  "mrw</w>": 15303,
  "pont": 47563,
  "ville</w>": 1930,
  "clubhouse</w>": 26553,
  "cans</w>": 13707,
  "gibr": 20206,
  "spol": 22476,
  "housing</w>": 5734,
  "itch</w>": 8147,
  "ðŁįĶ": 46415,
  "displacement</w>": 37931,
  "ffe": 1138,
  "ink</w>": 967,
  "mott</w>": 21708,
  "ðŁĴ¬</w>": 30947,
  "gette</w>": 29800,
  "mclaughlin</w>": 35346,
  "particles</w>": 27012,
  "kof": 17528,
  "ng": 10352,
  "label</w>": 9093,
  "collaborated</w>": 42265,
  "gains</w>": 12107,
  "batsman</w>": 35432,
  "remodel": 34159,
  "paramount</w>": 26642,
  "Ðµ": 22176,
  "comeback</w>": 8234,
  "marcus": 48955,
  "feu": 24912,
  "seok</w>": 22482,
  "workshops</w>": 12262,
  "purple": 17837,
  "mistakenly</w>": 48494,
  "rajinikanth</w>": 32922,
  "authori": 19207,
  "statues</w>": 24363,
  "âĽĦ": 30668,
  "sporting": 32620,
  "lun": 3221,
  "woc</w>": 39011,
  "Ã§a</w>": 22711,
  "chewan</w>": 23689,
  "functionality</w>": 33316,
  "pas</w>": 9525,
  "aaj": 28727,
  "newfound": 25250,
  "dalejr</w>": 38207,
  "unicef": 38286,
  "von": 11269,
  "neil": 13591,
  "swa": 4707,
  "mcfarlane</w>": 47174,
  "ðŁĴ¥</w>": 7347,
  "underattack</w>": 35075,
  "ðŁĮĪ": 23038,
  "aller": 10116,
  "scol": 13599,
  "overweight</w>": 43465,
  "action</w>": 1816,
  ":": 25,
  "mail": 10478,
  "photographic</w>": 22053,
  "revan</w>": 45277,
  "ars</w>": 864,
  "bearcats</w>": 33242,
  "drone</w>": 9397,
  "ðŁİ¥</w>": 13233,
  "marin</w>": 23992,
  "asun": 36044,
  "realise</w>": 14773,
  "rd": 13501,
  "famous": 44811,
  "airtel</w>": 34784,
  "omni</w>": 39489,
  "elabor": 26034,
  "nsa</w>": 23004,
  "transferring</w>": 40924,
  "wak</w>": 36015,
  "Ð</w>": 396,
  "was": 3398,
  "padre</w>": 38343,
  "photographed</w>": 11573,
  "globalgoals</w>": 33211,
  "criteria</w>": 24849,
  "lonel": 28872,
  "sofa</w>": 15723,
  "tied</w>": 9889,
  "trunks</w>": 38531,
  "league": 16635,
  "aspirations</w>": 36127,
  "weight</w>": 3868,
  "marbles</w>": 42931,
  "orientation</w>": 16873,
  "richard</w>": 4470,
  "nice</w>": 1805,
  "rosse</w>": 11602,
  "breeze</w>": 13125,
  "tender": 23020,
  "nyt</w>": 12816,
  "ledge": 23647,
  "marine</w>": 5746,
  "angled</w>": 32322,
  "favorite</w>": 1916,
  "stemc": 40486,
  "gato</w>": 44492,
  "achieve</w>": 8175,
  "paragra": 24903,
  "steamed</w>": 29007,
  "autumn": 28940,
  "marche</w>": 36173,
  "wald": 46930,
  "bureau</w>": 15400,
  "ror</w>": 2843,
  "tis</w>": 7394,
  "lawful</w>": 33845,
  "bpa</w>": 43855,
  "porte</w>": 28654,
  "clin": 2879,
  "sneak</w>": 6917,
  "gospel</w>": 11313,
  "stack</w>": 11257,
  "thanked</w>": 32079,
  "mentioned</w>": 11948,
  "amig": 40294,
  "saab</w>": 27158,
  "roger</w>": 7735,
  "katsu</w>": 43712,
  "downloadable</w>": 49105,
  "geous</w>": 3068,
  "black": 2025,
  "mada</w>": 37799,
  "heim": 10931,
  "drew": 18792,
  "motor</w>": 7659,
  "educator</w>": 19875,
  "discip": 38951,
  "bread</w>": 5066,
  "geeks</w>": 20110,
  "thug": 37212,
  "davin": 43187,
  "rese": 13000,
  "lans": 43550,
  "fortn": 14428,
  "\"\"\"</w>": 25539,
  "flat": 8986,
  "lof": 15011,
  "anoo": 25690,
  "cardio": 15003,
  "uc": 4903,
  "salvation</w>": 19534,
  "fluid": 43803,
  "tats</w>": 44557,
  "corey</w>": 15288,
  "matched</w>": 17792,
  "inese</w>": 35966,
  "eagles</w>": 6920,
  "offshore</w>": 15496,
  "lyf</w>": 43688,
  "nep</w>": 41960,
  "mca": 40570,
  "à¸Ī": 47608,
  "somerset</w>": 14926,
  "uniforms</w>": 17838,
  "tweeters</w>": 31713,
  "icic": 46006,
  "mary": 5146,
  "¾</w>": 378,
  "chose</w>": 11090,
  "the": 599,
  "?</w>": 286,
  "pesticides</w>": 37868,
  "berg": 12022,
  "cnn</w>": 8259,
  "bestie</w>": 17188,
  "alling</w>": 2992,
  "exhaust</w>": 21812,
  "bethlehem</w>": 31827,
  "accurate</w>": 8858,
  "bria</w>": 35890,
  "eugene</w>": 17760,
  "uz</w>": 36991,
  "vibrant</w>": 14270,
  "lincolnshire</w>": 29014,
  "sequel</w>": 15701,
  "sements</w>": 31449,
  "marquette</w>": 37624,
  "\"/</w>": 39486,
  "exp</w>": 19066,
  "deen</w>": 12912,
  "judg": 20012,
  "dif": 18656,
  "íķ": 15197,
  "de": 561,
  "quran</w>": 19690,
  "otic</w>": 9671,
  "maybe</w>": 3746,
  "dts</w>": 46233,
  "ture</w>": 941,
  "dances</w>": 24083,
  "poly</w>": 18367,
  "auch</w>": 43024,
  "dok": 40547,
  "envoy</w>": 29263,
  "awesome</w>": 1848,
  "griffin": 46612,
  "lga</w>": 39348,
  "narrated</w>": 43609,
  "maximize</w>": 28673,
  "patter": 4982,
  "oct</w>": 4565,
  "infantry</w>": 21655,
  "suspends</w>": 39535,
  "surpass</w>": 45494,
  "saturday</w>": 1748,
  "bac": 2791,
  "agi</w>": 17645,
  "consulate</w>": 34341,
  "gabby": 48115,
  "titan</w>": 15516,
  "¼": 120,
  "invests</w>": 38378,
  "goode</w>": 42076,
  "atlas</w>": 15775,
  "chd</w>": 41645,
  "interpreted</w>": 42157,
  "markle</w>": 32672,
  "islander</w>": 45651,
  "score</w>": 4431,
  "washingtonpost</w>": 28426,
  "teer</w>": 48648,
  "byn</w>": 11890,
  "ometer</w>": 20060,
  "gole": 41297,
  "wilde</w>": 23498,
  "juana</w>": 9081,
  "giam": 39623,
  "tierney</w>": 45693,
  "thusi": 9488,
  "ilities</w>": 5446,
  "unh": 25365,
  "fiable</w>": 34373,
  "tapped</w>": 26649,
  "ðŁĺ±ðŁĺ±</w>": 40767,
  "unexpe": 10802,
  "...@</w>": 12672,
  "ulty</w>": 8036,
  "denver": 27847,
  "mbling</w>": 28604,
  "slogans</w>": 42795,
  "distribu": 6138,
  "denim</w>": 13606,
  "gideon</w>": 43867,
  "chooses</w>": 29923,
  "protections</w>": 33772,
  "furnished</w>": 37388,
  "needless</w>": 39984,
  "amarine</w>": 45591,
  "schoolers</w>": 31455,
  "ely</w>": 1273,
  "arie</w>": 18774,
  "opec</w>": 33138,
  "customiz": 41793,
  "lobal</w>": 34574,
  "swfl</w>": 46607,
  "vivian</w>": 30129,
  "consultancy</w>": 31735,
  "freshers</w>": 35810,
  "defl": 31467,
  "burton": 42354,
  "oos</w>": 9896,
  "wimbledon</w>": 12229,
  "ican": 17653,
  "ðŁĹ£": 33232,
  "starry</w>": 30963,
  "xit</w>": 5316,
  "damaged</w>": 13568,
  "stroke": 44621,
  "weymouth</w>": 41433,
  "serendipity</w>": 49386,
  "muk</w>": 32600,
  "kirsty</w>": 37787,
  "restructuring</w>": 43260,
  "flipk": 30829,
  "haunts</w>": 48035,
  "wawrinka</w>": 48414,
  "paleo</w>": 22198,
  "else": 18857,
  "wut</w>": 28590,
  "hornet</w>": 28739,
  "msn": 18824,
  "millennials</w>": 18804,
  "chri": 1135,
  "arav": 35836,
  "chasers</w>": 34158,
  "grateful</w>": 5730,
  "automobi": 44813,
  "cpl</w>": 26852,
  "enas</w>": 34536,
  "basel</w>": 20903,
  "yacht</w>": 12859,
  "5": 20,
  "totals</w>": 25772,
  "supercell</w>": 43227,
  "baldwin</w>": 16242,
  "compliant</w>": 29893,
  "rol": 3393,
  "shortcuts</w>": 45793,
  "ethical": 47041,
  "enterpri": 7339,
  "bhav": 44950,
  "athome</w>": 38217,
  "w</w>": 342,
  "asad</w>": 42376,
  "garwal</w>": 38623,
  "bryan</w>": 10412,
  "bsb</w>": 23070,
  "rei": 15343,
  "ë¯": 19528,
  "private</w>": 4439,
  "uncertain</w>": 30384,
  "contestants</w>": 28062,
  "tick": 24640,
  "dialogue</w>": 11288,
  "iglesias</w>": 39432,
  "eros</w>": 30597,
  "gregg": 39422,
  "jnr</w>": 37145,
  "trance</w>": 18671,
  "spiral</w>": 19873,
  "triumph": 26507,
  "swap</w>": 15234,
  "ðŁĲ»</w>": 25322,
  "newcomer</w>": 30648,
  "geri</w>": 46214,
  "exal": 49324,
  "ðŁĺº</w>": 40613,
  "flow</w>": 5608,
  "franc</w>": 42340,
  "unders</w>": 20376,
  "brace</w>": 9183,
  "ean</w>": 13327,
  "trampoline</w>": 42800,
  "accuracy</w>": 18423,
  "blood</w>": 3590,
  "livepd": 38742,
  "sprung</w>": 32968,
  "finals</w>": 4536,
  "boom</w>": 7121,
  "+++</w>": 35986,
  "aging</w>": 4336,
  "!]</w>": 34466,
  "piping</w>": 40744,
  "dalit</w>": 45432,
  "unlikely</w>": 18904,
  "bid": 21035,
  "gr</w>": 6062,
  "benjam": 10550,
  "mid": 2192,
  "ited": 8603,
  "varied</w>": 32334,
  "ooh</w>": 16806,
  "aggre": 10426,
  "spanish": 29966,
  "prophets</w>": 39441,
  "tari</w>": 38012,
  "diest</w>": 45739,
  "akron</w>": 26115,
  "orch": 11893,
  "rides</w>": 11308,
  "mediac": 37490,
  "freshwater</w>": 24803,
  "aucus</w>": 47374,
  "collabor": 4437,
  "overturned</w>": 31048,
  "brate</w>": 41864,
  "weber</w>": 20179,
  "drin</w>": 47133,
  "completing</w>": 14949,
  "vicki</w>": 34927,
  "saga</w>": 15758,
  "sabar": 47102,
  "bangtan</w>": 39131,
  "û</w>": 439,
  "blackgirl": 43591,
  "yon": 10147,
  "elvi": 47008,
  "advised</w>": 23196,
  "zeal": 44951,
  "utah</w>": 9312,
  "mw</w>": 11206,
  "geographic</w>": 22635,
  "haven": 33074,
  "verses</w>": 30769,
  "muddy</w>": 21524,
  "peabody</w>": 41244,
  "asher</w>": 37585,
  "ghet": 18447,
  "hov</w>": 40291,
  "pune": 32593,
  "dthe": 13863,
  "hutch</w>": 33203,
  "minor</w>": 8522,
  "longh": 20286,
  "stream</w>": 3322,
  "beckham</w>": 18764,
  "wildoz</w>": 40113,
  "aretha</w>": 42090,
  "chandler</w>": 17595,
  "passes</w>": 7633,
  "mitsubishi</w>": 23030,
  "ells</w>": 2433,
  "ðŁĻĮðŁı»": 26756,
  "venom": 42491,
  "role": 18485,
  "skills</w>": 4113,
  "ornament</w>": 23409,
  "rotating</w>": 32265,
  "glenn</w>": 12861,
  "prepping</w>": 16459,
  "mcclure</w>": 44945,
  "fits</w>": 6401,
  "sword</w>": 11356,
  "pore</w>": 28267,
  "madel": 34532,
  "vixen</w>": 38757,
  "missyou</w>": 45799,
  "orphan</w>": 28994,
  "mg": 10003,
  "thugs</w>": 27686,
  "rip</w>": 4243,
  "ðŁĩ²": 16411,
  "mess": 2490,
  "meh</w>": 22211,
  "stolic</w>": 45020,
  "collusion</w>": 33864,
  "relative</w>": 17265,
  "conan</w>": 24750,
  "galley</w>": 48917,
  "pin": 2629,
  "collecting</w>": 10325,
  "score": 12067,
  "gand": 8399,
  "mmit</w>": 41050,
  "louise": 32275,
  "glam": 8738,
  "âĸ": 4168,
  "drummer</w>": 13618,
  "pex</w>": 43765,
  "back</w>": 893,
  "flint</w>": 18324,
  "meng": 37102,
  "apa": 36954,
  "discus</w>": 41828,
  "amel": 31988,
  "opar": 18167,
  "smur": 24708,
  "uit</w>": 47584,
  "walleye</w>": 49099,
  "veryday</w>": 37944,
  "hortons</w>": 38422,
  "ze</w>": 1298,
  "Ģ</w>": 478,
  "justi": 14700,
  "awk": 8888,
  "wts</w>": 32159,
  "temp</w>": 11097,
  "broch": 21419,
  "spic": 17264,
  "mayor</w>": 4676,
  "som": 734,
  "hopped</w>": 34220,
  "obesity</w>": 19499,
  "rundown</w>": 41100,
  "rctid</w>": 49223,
  "maxx</w>": 37466,
  "advance</w>": 7022,
  "retirement</w>": 9205,
  "lf</w>": 22078,
  "visionary</w>": 22959,
  "monarchs</w>": 36750,
  "revision</w>": 20335,
  "baja": 40418,
  "population</w>": 8423,
  "prada</w>": 29456,
  "simon": 8796,
  "spr": 1536,
  "gamer</w>": 11598,
  "naik</w>": 34424,
  "explorebc</w>": 38754,
  "foodnetwork</w>": 46793,
  "nik": 5126,
  "excess</w>": 22491,
  "acar": 22232,
  "stewards</w>": 49294,
  "antibio": 18954,
  "statewide</w>": 29561,
  "harat</w>": 28984,
  "strife</w>": 46473,
  "yoon": 30863,
  "acceleration</w>": 39387,
  "sculpted</w>": 41296,
  "attempting</w>": 18195,
  "phan": 8731,
  "quarterfinal</w>": 37992,
  "longhorns</w>": 38295,
  "hols</w>": 33344,
  "::</w>": 9788,
  "stopbrexit</w>": 48680,
  "geoff</w>": 20386,
  "devastated</w>": 29865,
  "api</w>": 14674,
  "gillian</w>": 28753,
  "solar</w>": 5199,
  "didnt</w>": 13057,
  "nox</w>": 27406,
  "mariana</w>": 44224,
  "songs</w>": 4641,
  "scotty</w>": 26836,
  "jai": 10542,
  "hiker</w>": 40947,
  "unseen</w>": 19069,
  "critics</w>": 16946,
  "perpetu": 30132,
  "sevens</w>": 29911,
  "ssed</w>": 1804,
  "rochelle</w>": 40161,
  "vincent</w>": 10357,
  "khs</w>": 21239,
  "íģ¬</w>": 45832,
  "steel</w>": 4726,
  "musk</w>": 19063,
  "lif": 16456,
  "expressed</w>": 20777,
  "electrician</w>": 46422,
  "nicola</w>": 21791,
  "appa</w>": 13110,
  "kah</w>": 15463,
  "combating</w>": 46121,
  "investigator</w>": 30528,
  "mimic</w>": 46519,
  "wort</w>": 30209,
  "charter": 42345,
  "sig</w>": 19145,
  "breaking</w>": 2755,
  "casm</w>": 35198,
  "olympian</w>": 25420,
  "awh</w>": 39566,
  "lpg</w>": 47905,
  "weir</w>": 25517,
  "bothered</w>": 27997,
  "enzymes</w>": 47465,
  "oath</w>": 20108,
  "rc": 7575,
  "yb</w>": 27615,
  "wahl": 27500,
  "tuni": 16270,
  "retired</w>": 11477,
  "powerhouse</w>": 22858,
  "swinging</w>": 26760,
  "thorpe</w>": 18099,
  "apore</w>": 6679,
  "misha</w>": 35434,
  "glutenfree</w>": 16138,
  "image": 24101,
  "teng": 34016,
  "faust</w>": 44772,
  "chey": 26968,
  "bhutto</w>": 30153,
  "analyzing</w>": 32107,
  "champions</w>": 4227,
  "swing</w>": 7429,
  "kang": 12226,
  "ttino</w>": 47389,
  "monte</w>": 14667,
  "vacu": 16058,
  "supervisor</w>": 20366,
  "management</w>": 3319,
  "rascal</w>": 43481,
  "suru</w>": 49240,
  "uti</w>": 24568,
  "fodils</w>": 44411,
  "assembly</w>": 7059,
  "vices</w>": 8332,
  "surya</w>": 37767,
  "philharmon": 25228,
  "newsc": 28656,
  "daylight</w>": 20809,
  "camou": 23588,
  "pt</w>": 1459,
  "ðŁĴĻ</w>": 4074,
  "bari</w>": 28016,
  "ican</w>": 5246,
  ":></w>": 39677,
  "ðŁįį</w>": 48946,
  "carve</w>": 40152,
  "sheehan</w>": 41809,
  "arians</w>": 19104,
  "killer</w>": 6613,
  ")": 8,
  "atric</w>": 13652,
  "followme</w>": 29668,
  "ðŁĸ¥</w>": 47990,
  "challenging</w>": 11754,
  "petersen</w>": 39794,
  "robo</w>": 36057,
  "autonom": 17870,
  "yers</w>": 3722,
  "shal": 15056,
  "abuse</w>": 7678,
  "bide</w>": 45178,
  "xt</w>": 1052,
  "angeles</w>": 7382,
  "bishop": 20625,
  "diagnose</w>": 44429,
  "dulce</w>": 44872,
  "himss</w>": 41730,
  "ober": 15284,
  "pares</w>": 12420,
  "vir</w>": 25319,
  "jumpsuit</w>": 31044,
  "scence</w>": 33418,
  "bendigo</w>": 48197,
  "meet</w>": 1633,
  "paysoff</w>": 48174,
  "aboss</w>": 46401,
  "ity": 2480,
  "royalty</w>": 18296,
  "sidewalks</w>": 43583,
  "gloss</w>": 22014,
  "twit": 1643,
  "n</w>": 333,
  "ier": 33173,
  "addressing</w>": 10594,
  "tequ": 17502,
  "smaller</w>": 12431,
  "mapu": 42082,
  "borrowed</w>": 28224,
  "fr</w>": 5512,
  "¬": 105,
  "gecko</w>": 38616,
  "creep</w>": 26084,
  "defenders</w>": 20063,
  "lah": 27315,
  "temple</w>": 5620,
  "ight": 14571,
  "blooming": 45175,
  "female": 22062,
  "fidel</w>": 36837,
  "thunderstorms</w>": 19525,
  "mac</w>": 4945,
  "tokyo": 35038,
  "intimidation</w>": 49258,
  "laye": 25995,
  "pons</w>": 41255,
  "ning": 6050,
  "nau</w>": 32878,
  "satellites</w>": 28483,
  "yach": 9039,
  "murderer</w>": 26956,
  "rebirth</w>": 33303,
  "tify</w>": 6677,
  "insanely</w>": 27846,
  "winn</w>": 38104,
  "frida</w>": 36001,
  "exploded</w>": 28947,
  "can": 950,
  "likes</w>": 4724,
  "comet</w>": 21405,
  "meadow": 25213,
  "churches</w>": 15539,
  "undergrad</w>": 38331,
  "tales</w>": 9469,
  "leur</w>": 45806,
  "establishment</w>": 20213,
  "commissioner</w>": 10221,
  "kex": 30251,
  "nish</w>": 13256,
  "jet</w>": 6565,
  "usic</w>": 16753,
  "pati</w>": 26708,
  "foxtv</w>": 49396,
  "getin": 25822,
  "totem</w>": 45376,
  "chr</w>": 36918,
  "pitched</w>": 28447,
  "burgh</w>": 4965,
  "sealing</w>": 42992,
  "ä¸": 19759,
  "virtu": 7977,
  "stevie": 42104,
  "oda</w>": 24777,
  "sells</w>": 14306,
  "fron</w>": 18036,
  "wanna": 35940,
  "bds</w>": 26732,
  "planting</w>": 13922,
  "direction</w>": 5407,
  "cougar": 35028,
  "weight": 12723,
  "barbershop</w>": 37707,
  "rev": 8424,
  "koh": 13379,
  "uranium</w>": 29850,
  "eclipse</w>": 11505,
  "instructional</w>": 31022,
  "}</w>": 348,
  "scot</w>": 9271,
  "ordin": 4378,
  "biz</w>": 5431,
  "agh</w>": 14402,
  "eno</w>": 12843,
  "stree</w>": 32438,
  "showcase</w>": 7265,
  "bless": 9640,
  "partially</w>": 21269,
  "shabbat</w>": 38042,
  "parti": 10509,
  "stellen": 42754,
  "gac</w>": 32520,
  "nxt": 35037,
  "itim": 15676,
  "crooked</w>": 25644,
  "nhl": 12290,
  "kickass</w>": 39299,
  "leuke": 31031,
  "pronoun": 23022,
  "swan</w>": 12530,
  "chilean</w>": 33186,
  "gettable</w>": 15620,
  "implic": 15269,
  "factfriday</w>": 27953,
  "slipper</w>": 39644,
  "mtn</w>": 18953,
  "add</w>": 3536,
  "judgement</w>": 25246,
  "inglis</w>": 46327,
  "pany</w>": 45567,
  "goodman</w>": 24146,
  "mam": 4404,
  "coverage</w>": 6810,
  "ajay</w>": 28726,
  "resulted</w>": 26449,
  "educ": 2200,
  "iction</w>": 40560,
  "agree</w>": 5953,
  "shotgun</w>": 21643,
  "knobs</w>": 47504,
  "ragnar": 34385,
  "ðŁİ¤</w>": 15690,
  "rockefeller</w>": 35476,
  "assembly": 34542,
  "solidar": 10415,
  "á": 157,
  "sheep": 23604,
  "siempre</w>": 44030,
  "layered</w>": 28520,
  "concepcion</w>": 47035,
  "spati": 19200,
  "mono": 8220,
  "yal</w>": 13418,
  "aburger</w>": 46660,
  "prolon": 35379,
  "angular": 43584,
  "gigi</w>": 26171,
  "helmets</w>": 21843,
  "resignation</w>": 24779,
  "navig": 12507,
  "delayed</w>": 14567,
  "leonard</w>": 13142,
  "ries": 28179,
  "pins</w>": 14619,
  "industri": 5082,
  "outreach</w>": 15297,
  "ovo</w>": 18065,
  "thursdays</w>": 21444,
  "ê</w>": 422,
  "mullet</w>": 35010,
  "sitting</w>": 4919,
  "lago</w>": 31476,
  "pokemongo</w>": 23985,
  "disclosed</w>": 30905,
  "tonline</w>": 45867,
  "patio</w>": 14304,
  "lanca": 15694,
  "enquiry</w>": 45141,
  "dub</w>": 13144,
  "thesis</w>": 10673,
  "lim": 2377,
  "struggle</w>": 8443,
  "holland": 31608,
  "tten": 11351,
  "preston": 37335,
  "lanapar": 47437,
  "partridge</w>": 34872,
  "swif": 28548,
  "senpai</w>": 46562,
  "guru": 18629,
  "whip</w>": 14412,
  "dugg": 40523,
  "deepak</w>": 45528,
  "storyline</w>": 37079,
  "epile": 23150,
  "tural": 45143,
  "ssg</w>": 40707,
  "csr": 32105,
  "lydia</w>": 24316,
  "combu": 35629,
  "hemo": 43788,
  "rang</w>": 24377,
  "mechan": 6715,
  "gres</w>": 39670,
  "bradbury</w>": 45097,
  "yoon</w>": 22113,
  "stomp</w>": 40165,
  "otis</w>": 28246,
  "bravo": 38613,
  "finalfantasy</w>": 44543,
  "driverless</w>": 46769,
  "accomplish</w>": 25542,
  "theeconomist</w>": 44518,
  "socal</w>": 20450,
  "alti": 35531,
  "auberg": 49382,
  "arctic</w>": 9138,
  "ðŁĺĩ</w>": 13091,
  "hull": 25154,
  "rounds</w>": 11242,
  "weho</w>": 47798,
  "delici": 19993,
  "trust</w>": 3876,
  "continued</w>": 10150,
  "somes</w>": 38124,
  "christine</w>": 14712,
  "clich": 44407,
  "soho": 47749,
  "chai": 31590,
  "otto</w>": 17730,
  "hereto": 47673,
  "nighter</w>": 41349,
  "nestle</w>": 43967,
  "suni</w>": 47010,
  "keel</w>": 48376,
  "threshold</w>": 33791,
  "expend": 29302,
  "soar": 48997,
  "teacher</w>": 4008,
  "peel</w>": 17158,
  "devo": 11861,
  "afp</w>": 18311,
  "jongin</w>": 36957,
  "rails</w>": 23427,
  "vay": 48000,
  "niam": 39347,
  "engag": 6793,
  "edwards</w>": 12627,
  "abrams</w>": 29852,
  "cas</w>": 13831,
  "phyl": 35600,
  "sade</w>": 27429,
  "maru</w>": 31838,
  "caroline": 31064,
  "detective</w>": 13672,
  "wild</w>": 3220,
  "stia</w>": 26492,
  "âģ£</w>": 16845,
  "yorkshire": 27007,
  "?)</w>": 9626,
  "ðŁı»": 5042,
  "astronom": 23264,
  "clip</w>": 9289,
  "kton</w>": 37848,
  "ðŁįĥ": 27157,
  "christmas": 18174,
  "sugar</w>": 5574,
  "rudd</w>": 31836,
  "wau": 9479,
  "ironically</w>": 36779,
  "lure</w>": 31376,
  "peake</w>": 24810,
  "panama</w>": 15522,
  "economists</w>": 43701,
  "kus</w>": 27505,
  "âĿ¤âĿ¤âĿ¤âĿ¤": 37918,
  "cork": 18148,
  "hollow": 41221,
  "maintenance</w>": 9610,
  "mory</w>": 22633,
  "suffolk": 46408,
  "quack</w>": 45575,
  "spark</w>": 11047,
  "lion": 8872,
  "therock</w>": 30036,
  "consoli": 21586,
  "leggings</w>": 22895,
  "alder": 18220,
  "fal": 2778,
  "ledger</w>": 26817,
  "cyclist</w>": 20686,
  "season": 19288,
  "fault</w>": 13862,
  "rem": 15098,
  "drawings</w>": 13397,
  "neve</w>": 44023,
  "asho": 20273,
  "unemployed</w>": 32721,
  "fol</w>": 48616,
  "bix": 46579,
  "ìļ°": 38415,
  "íĭ": 34350,
  "andrews</w>": 14506,
  "rotary</w>": 14654,
  "probation</w>": 36531,
  "lymph": 30073,
  "diffuser</w>": 49400,
  "moh</w>": 35388,
  "illac</w>": 17218,
  "incl</w>": 13338,
  "ek": 4212,
  "boatsales</w>": 46244,
  "nj</w>": 6672,
  "aerop": 27735,
  "takes</w>": 2633,
  "equations</w>": 38225,
  "payment</w>": 10596,
  "bizitalk</w>": 34929,
  "kati": 6515,
  "tem": 2404,
  "tights</w>": 29581,
  "wrestle</w>": 28086,
  "dsb</w>": 14257,
  "marty": 9926,
  "boomer</w>": 31766,
  "here": 9134,
  "desirable</w>": 32368,
  "javascript</w>": 16423,
  "beauty</w>": 2488,
  "ðŁķ": 7692,
  "rake</w>": 32712,
  "springtime</w>": 28285,
  "gether</w>": 27224,
  "digit</w>": 27472,
  "citizens</w>": 7949,
  "kas": 6119,
  "parlour</w>": 37829,
  "newprofile": 14633,
  "âĮļï¸ı</w>": 35931,
  "analysis</w>": 5296,
  "ðŁĻıðŁı½": 34103,
  "preview</w>": 4449,
  "assured</w>": 25591,
  "yah": 16170,
  "(((</w>": 33287,
  "vulture</w>": 34593,
  "gorge</w>": 20038,
  "mariah": 31214,
  "kinetic</w>": 37699,
  "wego</w>": 28220,
  "understand": 47582,
  "ribbons</w>": 35271,
  "imports</w>": 25286,
  "seminar</w>": 7269,
  "ðŁİ¨</w>": 13461,
  "elian</w>": 42508,
  "susp": 7971,
  "countryfile</w>": 47023,
  "sip</w>": 16096,
  "woop</w>": 31884,
  "understatement</w>": 38296,
  "cbs": 16788,
  "miraculous</w>": 38671,
  "summ": 1309,
  "kovich</w>": 44794,
  "seeking</w>": 8592,
  "leicester</w>": 11510,
  "jus</w>": 14999,
  "patty</w>": 18321,
  "sv": 6508,
  "admiring</w>": 29835,
  "blur</w>": 27976,
  "ounded</w>": 9634,
  "jew</w>": 27450,
  "woon</w>": 33126,
  "jacks</w>": 19649,
  "pats</w>": 24874,
  "namm</w>": 35524,
  ".<</w>": 29442,
  "cushi": 15333,
  "bang</w>": 6907,
  "entr": 7129,
  "ether": 23349,
  "sketching</w>": 23228,
  "bulletproof</w>": 43212,
  "ige</w>": 10806,
  "philadel": 9428,
  "tvc</w>": 49190,
  "sely</w>": 8402,
  "kac": 21693,
  "csk</w>": 43036,
  "hef": 29473,
  "hale</w>": 14701,
  "captures</w>": 15305,
  "earl</w>": 14235,
  "steamy</w>": 43104,
  "consistency</w>": 25683,
  "hmmmm</w>": 34598,
  "yi": 5826,
  "shredding</w>": 45534,
  "ese": 18766,
  "central</w>": 3339,
  "paradox</w>": 33109,
  "ìĨ": 15115,
  "ngo</w>": 24821,
  "monsoon</w>": 18872,
  "pre</w>": 2900,
  "bey</w>": 6767,
  "vintage</w>": 3266,
  "ðŁĺ»": 15453,
  "cp</w>": 9130,
  "ðŁĺĪðŁĺĪ</w>": 44473,
  "stan</w>": 2434,
  "microsoft</w>": 7254,
  "gloucestershire</w>": 33789,
  "coward</w>": 33729,
  "bouchard</w>": 47930,
  "gemstones</w>": 43972,
  "gues</w>": 12601,
  "otr</w>": 38685,
  "llen": 41197,
  "wakeupamerica</w>": 37474,
  "knit</w>": 14313,
  "willis</w>": 18491,
  "dders</w>": 24827,
  "muna</w>": 48424,
  "ash": 2067,
  "armen": 13145,
  "rec</w>": 11243,
  "landon</w>": 32748,
  "charge": 25032,
  "anc": 1124,
  "crore</w>": 18274,
  "#</w>": 258,
  "legion</w>": 14525,
  "aka": 19154,
  "successful</w>": 4670,
  "alexis": 35023,
  "isa</w>": 6536,
  "semitism</w>": 25911,
  "plaid</w>": 23291,
  "intentional</w>": 29536,
  "bree</w>": 37138,
  "la": 572,
  "blers</w>": 26930,
  "strung</w>": 46033,
  "facial</w>": 11909,
  "thalap": 39789,
  "premiered</w>": 27652,
  "seun": 24209,
  "natgeo": 33009,
  "potts</w>": 39839,
  "ilit": 11178,
  "nave": 42704,
  "slays</w>": 45648,
  "dism": 30836,
  "student": 14681,
  "transi": 32236,
  "flir": 24330,
  "epilo": 31291,
  "angler</w>": 22284,
  "jing": 34933,
  "cowards</w>": 48972,
  "miserable</w>": 26196,
  "forall</w>": 17824,
  "otaku</w>": 40743,
  "sek": 45515,
  "tweet": 11826,
  "thelove": 40668,
  "salesforce</w>": 22680,
  "blo": 1204,
  "powder": 32427,
  "pais": 16878,
  "eventful</w>": 45628,
  ":)": 11070,
  "inheritance</w>": 39341,
  "abar": 17860,
  "gatwick</w>": 37122,
  "amsterdam</w>": 9441,
  "junk</w>": 16000,
  "trevor": 23437,
  "jazeera</w>": 38260,
  "smith</w>": 2915,
  "espresso</w>": 17098,
  "explosives</w>": 44705,
  "abbot</w>": 44046,
  "slee</w>": 38977,
  "chelse": 19071,
  "wark</w>": 15164,
  "angh": 34030,
  "commer": 4028,
  "averaging</w>": 35266,
  "swin": 14554,
  "nasty": 32930,
  "view": 12004,
  "liberal</w>": 9985,
  "reynolds</w>": 14309,
  "terrified</w>": 28204,
  "wie</w>": 9131,
  "anak": 34814,
  "coincidence</w>": 19807,
  "alt": 9995,
  "bbcc": 39052,
  "tj": 18890,
  "devine</w>": 33019,
  "wich</w>": 5238,
  "foss": 14240,
  "bloods</w>": 39539,
  "ised</w>": 2861,
  "rushed</w>": 28104,
  "shade": 34554,
  "tavern</w>": 18644,
  "wye</w>": 43751,
  "waits</w>": 21361,
  "?????</w>": 21370,
  "lettering</w>": 26382,
  "plantation</w>": 20014,
  "watts</w>": 14750,
  "craf": 10873,
  "ðŁĲ¢</w>": 37049,
  "matches</w>": 8609,
  "wipes</w>": 33463,
  "candy": 20741,
  "rof": 33029,
  "william</w>": 4705,
  "ellic": 38905,
  "theroad</w>": 29807,
  "advanced</w>": 7465,
  "independ": 4147,
  "idiots</w>": 20856,
  "hamont</w>": 18518,
  "chinson</w>": 33786,
  "margarita</w>": 25958,
  "jeopar": 22988,
  "march": 10638,
  "krishnan</w>": 46535,
  "soybean</w>": 34606,
  "infant</w>": 19192,
  "zur": 17128,
  "brewster</w>": 40274,
  "ä½": 47466,
  "drop</w>": 3387,
  "à¤": 3124,
  "strang": 11138,
  "owned</w>": 8536,
  "sovere": 17736,
  "bambi</w>": 46596,
  "osh</w>": 35011,
  "gayle</w>": 29998,
  "sas": 3960,
  "ðŁĩ¨ðŁĩ": 8989,
  "vered</w>": 2868,
  "meetings</w>": 9980,
  "ìĻ": 39405,
  "proudly</w>": 11203,
  "guel": 23146,
  "roadmap</w>": 30111,
  "close": 10603,
  "allstar</w>": 22974,
  "ardo</w>": 9394,
  "sums</w>": 13325,
  "exit</w>": 9374,
  "earphones</w>": 44905,
  "crew": 21560,
  "sly</w>": 21062,
  "ðŁĮº": 27608,
  "frustr": 16046,
  "scan": 10650,
  "arrog": 26997,
  "feliz</w>": 20221,
  "progressi": 23297,
  "stel</w>": 10798,
  "eternal</w>": 13732,
  "tao": 29084,
  "cardi": 6211,
  "pancake</w>": 18723,
  "calli": 16338,
  "boat": 12426,
  "historia</w>": 46010,
  "ðŁĳĪ": 32794,
  "millionaire</w>": 25179,
  "newyear</w>": 12999,
  "cruising</w>": 19743,
  "fitters</w>": 32364,
  "ld": 1431,
  "ying": 42933,
  "seaman</w>": 47513,
  "mizzou</w>": 26165,
  "adventurer</w>": 48098,
  "typing</w>": 20102,
  "boulevard</w>": 19504,
  "oosa</w>": 30834,
  "scenic</w>": 15394,
  "exploited</w>": 48554,
  "gilbert</w>": 14154,
  "cky": 26229,
  "yunho</w>": 39748,
  "applause</w>": 22650,
  "punctuation</w>": 47051,
  "rever": 14829,
  "commodities</w>": 30350,
  "nicole</w>": 10000,
  "explo": 3586,
  "gaining</w>": 15260,
  "happenings</w>": 41998,
  "psd</w>": 28810,
  "oll</w>": 15510,
  "reagan</w>": 17767,
  "pean": 11563,
  "gunshot</w>": 49250,
  "myal": 42735,
  "wouldn</w>": 5878,
  "competitiveness</w>": 43209,
  "aeron": 37286,
  "collapse</w>": 16520,
  "tart": 16707,
  "¬</w>": 361,
  "animal": 10697,
  "excep": 8882,
  "anirud": 35278,
  "cove": 21700,
  "²": 110,
  "swana</w>": 24699,
  "breeds</w>": 29021,
  "mh</w>": 10834,
  "investigations</w>": 24020,
  "E": 36,
  "chance</w>": 2594,
  "undecided</w>": 49368,
  "anushkasharma</w>": 44203,
  "drizzle</w>": 28240,
  "karaoke</w>": 16640,
  "adata</w>": 39500,
  "schat</w>": 31842,
  "gud": 48061,
  "canon": 17749,
  "dandelion</w>": 38903,
  "based": 35196,
  "yÃ¼": 48232,
  "purposes</w>": 22020,
  "delia</w>": 33193,
  "ven": 1240,
  "confeder": 17104,
  "corpor": 4258,
  "changes</w>": 4938,
  "âĿĹï¸ı</w>": 17391,
  "teachings</w>": 32119,
  "sl": 2621,
  "obitu": 39218,
  "angi</w>": 24301,
  "holmes</w>": 12756,
  "brooch</w>": 21207,
  "prox": 41616,
  "pical</w>": 5482,
  "handic": 17812,
  "proper": 3577,
  "symboli": 22019,
  "afa</w>": 24953,
  "Â®": 30857,
  "ukulele</w>": 39094,
  "coca</w>": 21197,
  "toe</w>": 11344,
  "suici": 16372,
  "seab": 15728,
  "timberlake</w>": 28274,
  "saty": 39426,
  "waterford</w>": 24448,
  "racks</w>": 21191,
  "boar": 7837,
  "ashore</w>": 31194,
  "rehabilitation</w>": 21042,
  "probe</w>": 14359,
  "babys": 22266,
  "msdhoni</w>": 32850,
  "distinctive</w>": 25486,
  "gon": 1854,
  "internetof": 44449,
  "hts</w>": 43710,
  "griffiths</w>": 34182,
  "âŀ¡ï¸ı": 31860,
  "could": 44812,
  "cutler</w>": 40428,
  "foxandfriends</w>": 45841,
  "adio</w>": 15060,
  "nawaz</w>": 19523,
  "ghu": 25808,
  "enough</w>": 2744,
  "hedges</w>": 41345,
  "crock": 41685,
  "unearth": 32716,
  "tagne</w>": 47467,
  "pinoy": 43578,
  "skar": 27587,
  "cleaners</w>": 33258,
  "custody</w>": 16176,
  "expired</w>": 30200,
  "ãĥĪ": 42384,
  "grower</w>": 44925,
  "aioli</w>": 43949,
  "dysfunctional</w>": 40757,
  "fred</w>": 6678,
  "nam</w>": 12344,
  "worldtour</w>": 23202,
  "drown</w>": 28571,
  "humbled</w>": 19682,
  "gul": 5530,
  "werner</w>": 29917,
  "ai</w>": 2215,
  "organisation</w>": 15868,
  "pbl</w>": 35166,
  "ene</w>": 6049,
  "recognise</w>": 19824,
  "kristin": 35408,
  "connor": 21984,
  "yum</w>": 7259,
  "gbp</w>": 27391,
  "gentry</w>": 47225,
  "tanto</w>": 45685,
  "gri</w>": 18484,
  "Ø</w>": 404,
  "debt</w>": 8932,
  "ðŁıĴ</w>": 37756,
  "ðŁĶ¶</w>": 36222,
  "ryu</w>": 34604,
  "tourists</w>": 15546,
  "ðŁĶ´</w>": 10854,
  "relat": 27192,
  "enca</w>": 37774,
  "veau</w>": 24419,
  "imaginative</w>": 47233,
  "arter": 29449,
  "schel</w>": 38569,
  "micheal</w>": 43709,
  "eless</w>": 30837,
  "travelers</w>": 20644,
  "model</w>": 2863,
  "lis": 7297,
  "kremlin</w>": 33979,
  "symb": 22987,
  "limit</w>": 9973,
  "thicker</w>": 43302,
  "whoever</w>": 11137,
  "goalie</w>": 20723,
  "bars</w>": 8616,
  "montag": 37202,
  "atories</w>": 35678,
  "dbs</w>": 40558,
  "worldbookday</w>": 31191,
  "reminder</w>": 5565,
  "ppe</w>": 11867,
  "hyacin": 47263,
  "ied</w>": 10059,
  "federer</w>": 18246,
  "cohort</w>": 22782,
  "badge</w>": 11301,
  "stino</w>": 40658,
  "ivory</w>": 16776,
  "juliette</w>": 44804,
  "wisely</w>": 26173,
  "political</w>": 4197,
  "aish": 21946,
  "mga</w>": 23954,
  "notifications</w>": 23169,
  "assigned</w>": 25767,
  "seychelles</w>": 38519,
  "hino</w>": 45343,
  "nightingale</w>": 40696,
  "parkin": 34868,
  "macfar": 45374,
  "spector</w>": 48676,
  "witch": 20139,
  "metrics</w>": 24396,
  "otta": 7623,
  "bricks</w>": 21029,
  "hush</w>": 28728,
  "youare": 33879,
  "junto</w>": 34282,
  "looney</w>": 45315,
  "mount": 20553,
  "drink": 14131,
  "cybermonday</w>": 36578,
  "puck</w>": 17550,
  "als</w>": 938,
  "bayan</w>": 43895,
  "russia</w>": 4018,
  "pianist</w>": 21048,
  "cello</w>": 23013,
  "shawl</w>": 35132,
  "nav</w>": 25308,
  "aran": 20839,
  "had</w>": 1100,
  "smuggling</w>": 34146,
  "juicy</w>": 17623,
  "coo</w>": 21691,
  "wray</w>": 48943,
  "mond": 14522,
  "ats": 46890,
  "ballard</w>": 31750,
  "jb</w>": 13637,
  "conce": 9145,
  "pec": 32447,
  "brethren</w>": 43134,
  "franks</w>": 42855,
  "zika</w>": 28783,
  "trail": 11523,
  "pesh": 33184,
  "yr</w>": 4333,
  "handheld</w>": 26812,
  "ha</w>": 1429,
  "gger": 12367,
  "migraine</w>": 35360,
  "humber": 30602,
  "sergey</w>": 35390,
  "cari": 18497,
  "body": 7132,
  "uba</w>": 29768,
  "benefit</w>": 6399,
  "ðŁĲ£</w>": 39597,
  "tutoring</w>": 37532,
  "ðŁĺ´ðŁĺ´</w>": 49307,
  "artiste</w>": 41402,
  "berth</w>": 28317,
  "provoc": 31618,
  "hier</w>": 29913,
  "ðŁĺ¢ðŁĺ¢": 32923,
  "pali": 48063,
  "sura": 33412,
  "qt</w>": 15013,
  "moron</w>": 31875,
  "coop</w>": 18910,
  "akins</w>": 48568,
  "pee": 12988,
  "scientific</w>": 9750,
  "glan</w>": 45844,
  "rupert</w>": 25625,
  "righteousness</w>": 42481,
  "messages</w>": 9390,
  "andrei</w>": 42137,
  "los": 32217,
  "aguchi</w>": 49206,
  "todays</w>": 13513,
  "castell": 31792,
  "mming": 21038,
  "jets</w>": 10025,
  "poro": 48110,
  "ðŁĮ¼</w>": 26312,
  "opponents</w>": 19664,
  "tained</w>": 10212,
  "doggy</w>": 26359,
  "veled</w>": 15370,
  "golfclub</w>": 45742,
  "quets</w>": 39055,
  "siberia</w>": 39969,
  "wilbur</w>": 43069,
  "chenko</w>": 29073,
  "contractors</w>": 22427,
  "fulness</w>": 10526,
  "heu": 20105,
  "rafi": 35304,
  "motivate</w>": 26771,
  "gera</w>": 48867,
  "asg</w>": 34813,
  "instruction</w>": 19407,
  "maxim": 19892,
  "heel": 33646,
  "recu": 26798,
  "cote</w>": 20751,
  "monde</w>": 29339,
  "counsell": 47510,
  "downward</w>": 37430,
  "rake": 26825,
  "multinational</w>": 46540,
  "ush</w>": 18335,
  "stro": 3121,
  "ators</w>": 3389,
  "F": 37,
  "walkaway</w>": 48255,
  "srk</w>": 11216,
  "dang</w>": 14992,
  "dive": 26042,
  ":/</w>": 13604,
  "elen</w>": 39164,
  "authority</w>": 10524,
  "palestine</w>": 11682,
  "peaceful</w>": 9461,
  "arjun</w>": 20477,
  "pf</w>": 12572,
  "abun": 20544,
  "scrimmage</w>": 25216,
  "ical": 6082,
  "expelled</w>": 48834,
  "pixels</w>": 34099,
  "muskoka</w>": 40832,
  "accepting</w>": 12855,
  "snapshot</w>": 18243,
  "migrant</w>": 18902,
  "tennes": 9514,
  "given</w>": 4302,
  "varsity</w>": 8574,
  "metam": 28862,
  "rodriguez</w>": 14057,
  "sauvi": 30116,
  "maltese</w>": 39838,
  "infra</w>": 45877,
  "setlist</w>": 33141,
  "mean</w>": 3450,
  "yyj</w>": 26203,
  "aids</w>": 11759,
  "swim": 4928,
  "spokesperson</w>": 26234,
  "aaah</w>": 35856,
  "reveal</w>": 8052,
  "promise</w>": 6745,
  "zab": 22982,
  "knight": 17949,
  "wont</w>": 15952,
  "ðŁİ¶</w>": 6011,
  "litters</w>": 45300,
  "place</w>": 1445,
  "weg</w>": 47561,
  "ericsson</w>": 39645,
  "common": 8414,
  "chest</w>": 10563,
  "isa": 11034,
  "companion</w>": 14963,
  "ÑĢÐ¾Ð´": 47039,
  "thur": 1837,
  "effort": 40078,
  "healthyliving</w>": 27293,
  "wc": 4842,
  "horizon": 17924,
  "construction</w>": 4585,
  "spongebob</w>": 25089,
  "siders</w>": 41249,
  "erno</w>": 40812,
  "arrangements</w>": 23792,
  "tucker": 39703,
  "logist</w>": 7407,
  "lyk</w>": 46376,
  "steph</w>": 16251,
  "propaganda</w>": 14718,
  "croydon</w>": 27116,
  "ãħ": 5947,
  "ibooks</w>": 46887,
  "compare</w>": 13771,
  "aides</w>": 49082,
  "ðŁĴĦ": 46116,
  "ssel": 17402,
  "airbus</w>": 15324,
  "faz": 26238,
  "().</w>": 41737,
  "check</w>": 1217,
  "mog</w>": 42362,
  "alistic</w>": 22302,
  "trum": 11766,
  "bench": 17770,
  "durability</w>": 43671,
  "minimal</w>": 18458,
  "nadi": 30512,
  "inian</w>": 36638,
  "protect": 25563,
  "chicagof": 40638,
  "sive": 23572,
  "armchair</w>": 45757,
  "ultimat": 16522,
  "anyone</w>": 2302,
  "ðŁĺı": 11624,
  "hercules</w>": 26539,
  "courtroom</w>": 41071,
  "bados</w>": 25755,
  "labour": 19586,
  "itor": 47267,
  "disapp": 5384,
  "mysterious</w>": 12650,
  "mop</w>": 33900,
  "storyteller</w>": 35882,
  "flap</w>": 35253,
  "deprivation</w>": 47810,
  "namaste</w>": 35549,
  "wsop</w>": 41231,
  "chance": 32940,
  "ud": 6560,
  "washes</w>": 38950,
  "faulkner</w>": 37840,
  "harrogate</w>": 30842,
  "spiro": 40085,
  "paco</w>": 41364,
  "wee</w>": 8288,
  "safe</w>": 2996,
  "coates</w>": 36899,
  "liquor</w>": 17828,
  "ðŁĴª": 5475,
  "wales": 25383,
  "processes</w>": 15169,
  "alternati": 16699,
  "investments</w>": 14675,
  "empowered</w>": 29087,
  "oor</w>": 35239,
  "scd</w>": 48422,
  "fenton</w>": 47265,
  "jamesc": 47004,
  "âĢ¦..</w>": 47779,
  "stem</w>": 6761,
  "bankrupt</w>": 37288,
  "ares</w>": 12224,
  "row</w>": 1044,
  "gal</w>": 4488,
  "insightful</w>": 20354,
  "lakshmi</w>": 39682,
  "niti": 43964,
  "haban": 46225,
  "efl</w>": 27172,
  "hugging</w>": 27058,
  "abud": 20180,
  "salutes</w>": 32762,
  "rcmp</w>": 31489,
  "oxfordshire</w>": 37855,
  "diffe": 1967,
  "rush</w>": 6973,
  "stron": 4165,
  "taining</w>": 7565,
  "sampler</w>": 40629,
  "startrek": 30642,
  "currie</w>": 39385,
  "volo</w>": 44791,
  "blueprint</w>": 30594,
  "fractured</w>": 37421,
  "avec</w>": 25828,
  "your": 2130,
  "cf": 10189,
  "bunch</w>": 7796,
  "cur": 1092,
  "summertime</w>": 19025,
  "garis</w>": 37839,
  "iton</w>": 21119,
  "tram": 9800,
  "office": 18033,
  "gees</w>": 38088,
  "plano</w>": 34063,
  "õ</w>": 433,
  "either</w>": 6036,
  "gho": 4307,
  "inf": 1529,
  "acea</w>": 35219,
  "augh": 28310,
  "parliamentary</w>": 17912,
  "mo": 617,
  "copper": 24741,
  "hea": 27150,
  "players</w>": 3030,
  "kul": 11325,
  "line</w>": 1148,
  "mpd</w>": 33814,
  "jac</w>": 30198,
  "invasi": 38100,
  "nswpol</w>": 44434,
  "bian": 19531,
  "platform</w>": 5549,
  "drawing</w>": 3610,
  "wally</w>": 26024,
  "medit": 19130,
  "effortless</w>": 41639,
  "amount</w>": 6403,
  "inge": 11790,
  "jhb</w>": 34631,
  "upton</w>": 31910,
  "ðŁĵŀ</w>": 24022,
  "itali": 11644,
  "sti": 860,
  "crosses</w>": 20473,
  "mario</w>": 7600,
  "dangerous</w>": 7350,
  "merr": 48288,
  "slides</w>": 15939,
  "sui</w>": 24972,
  "aimee</w>": 36318,
  "itten": 30014,
  "amoo</w>": 26977,
  "cloud": 12965,
  "rebel": 8185,
  "marcor": 39945,
  "fraudulent</w>": 47408,
  "freddy</w>": 24394,
  "greatness</w>": 14189,
  "pizzeria</w>": 44174,
  "wat</w>": 10621,
  "adap": 6341,
  "nba</w>": 5139,
  "sain</w>": 40378,
  "gordo</w>": 47707,
  "announcer</w>": 33626,
  "....</w>": 1390,
  "orb</w>": 36958,
  "surrey": 26489,
  "gravit": 26150,
  "ddington</w>": 29238,
  "landlords</w>": 35283,
  "table</w>": 2175,
  "sue": 14045,
  "discussed</w>": 11300,
  "thoughtful</w>": 19592,
  "valedic": 43525,
  "freddie</w>": 17014,
  "din</w>": 5673,
  "barnsley</w>": 32153,
  "strada</w>": 31134,
  "surreal</w>": 18408,
  "sidewalk</w>": 23278,
  "brigade</w>": 16032,
  "calligraphy</w>": 27775,
  "miner</w>": 26572,
  "reasonably</w>": 38589,
  "exico</w>": 38712,
  "justine</w>": 34418,
  "mccul": 38833,
  "substantially</w>": 47577,
  "lowered</w>": 34968,
  "yd</w>": 9534,
  "tsford</w>": 32823,
  "keye": 40516,
  "skipped</w>": 40639,
  "wwen": 23308,
  "automatically</w>": 20725,
  "jocelyn</w>": 47259,
  "reporting</w>": 9218,
  "biggs</w>": 46507,
  "idyllic</w>": 46632,
  "rex": 13002,
  "dot": 7473,
  "dams</w>": 37680,
  "definitely</w>": 4824,
  "ô": 176,
  "agro": 33178,
  "à¸ļ</w>": 39616,
  "begun</w>": 10514,
  "gaia</w>": 41269,
  "syracuse</w>": 19640,
  "cars</w>": 3346,
  "usb</w>": 10281,
  "âĿ¤ï¸ıâĿ¤ï¸ı</w>": 10363,
  "permanent</w>": 11144,
  "lids</w>": 41609,
  "grabbing</w>": 26440,
  "eled</w>": 20357,
  "staffer</w>": 38494,
  "rab": 14816,
  "oney</w>": 9408,
  "il": 543,
  "helpers</w>": 36316,
  "fit": 2366,
  "nordic": 36439,
  "een</w>": 21230,
  "wale</w>": 20336,
  "airy</w>": 44453,
  "hobart</w>": 31646,
  "logies</w>": 7378,
  "taurus</w>": 32881,
  "sponge</w>": 24345,
  "organizers</w>": 27191,
  "mati": 12716,
  "flagship</w>": 19779,
  "decadent</w>": 41716,
  "y</w>": 344,
  "proper</w>": 8205,
  "chem": 5667,
  "upri": 15982,
  "brisbane</w>": 12407,
  "ios</w>": 6614,
  "kitchen": 18131,
  "alm</w>": 28303,
  "ðŁĺĦ</w>": 7624,
  "nigel": 33919,
  "sandy": 29679,
  "armour</w>": 18503,
  "swept</w>": 23311,
  "bic": 5960,
  "impac": 7573,
  "decker</w>": 21449,
  "thedaily": 33550,
  "thresh": 29779,
  "dove": 27511,
  "ðŁĮĬ": 20465,
  "argyle</w>": 36179,
  "alien</w>": 9639,
  "bel</w>": 3543,
  "fursuit": 25306,
  "lowering</w>": 35261,
  "lee": 6224,
  "mbta</w>": 38979,
  "trix</w>": 41017,
  "dedicated</w>": 6770,
  "ohwx</w>": 47993,
  "reveals</w>": 6621,
  "aint": 29543,
  "lidge</w>": 45558,
  "balling</w>": 47588,
  "banter</w>": 25535,
  "capcom</w>": 28342,
  "lotte</w>": 7274,
  "mondaymotiv": 45488,
  "itel</w>": 44638,
  "pork</w>": 7897,
  "ì£": 39856,
  "bugatti</w>": 35451,
  "trace</w>": 14767,
  "defi": 17244,
  "fathers</w>": 12780,
  "youthful</w>": 37480,
  "augh</w>": 14005,
  "stacy</w>": 26628,
  "transitional</w>": 41519,
  "bari": 21428,
  "foes</w>": 46279,
  "br</w>": 7532,
  "client": 48528,
  "mony</w>": 4117,
  "organisers</w>": 35778,
  "¢": 95,
  "reduced</w>": 10821,
  "ve</w>": 563,
  "kosovo</w>": 28343,
  "absur": 21639,
  "xl": 36529,
  "sentenced</w>": 17773,
  "thic": 26107,
  "mcfc</w>": 16416,
  "stereotypes</w>": 27890,
  "stor</w>": 17740,
  "hiphop": 26598,
  "nayanthara</w>": 45184,
  "ninjas</w>": 42796,
  "meal</w>": 5478,
  "motd</w>": 46232,
  "broker</w>": 20449,
  "matin</w>": 44849,
  "coin": 14651,
  "visit</w>": 1600,
  "prem": 32090,
  "sorry</w>": 3675,
  "ingtips</w>": 39373,
  "mcder": 27355,
  "luciano</w>": 46365,
  "battersea</w>": 35839,
  "authored</w>": 37928,
  "bedrooms</w>": 23996,
  "waldorf</w>": 38227,
  "ami</w>": 3065,
  "đ</w>": 461,
  "laure": 16932,
  "sal": 980,
  "latest</w>": 2053,
  "varian</w>": 34334,
  "gat</w>": 18941,
  "rhetoric</w>": 29985,
  ")?</w>": 18765,
  "nts</w>": 43775,
  "controlled</w>": 14140,
  "ealing</w>": 40484,
  "muck</w>": 45330,
  "baseline</w>": 40648,
  "crumb</w>": 39909,
  "rib</w>": 18298,
  "results</w>": 3790,
  "matchups</w>": 49162,
  "âģ": 1667,
  "tonga</w>": 37882,
  "libra</w>": 43038,
  "regulator</w>": 30364,
  "âĺİ": 24045,
  "disp": 11073,
  "disastrous</w>": 35790,
  "undeni": 38424,
  "ameter</w>": 23393,
  "toolkit</w>": 29849,
  "bundles</w>": 29834,
  "jon": 3026,
  "pacqui": 28456,
  "aut</w>": 12343,
  "sven": 37786,
  "grave</w>": 9981,
  "homes": 19480,
  "rotar": 45959,
  "ãĥķãĤ": 33371,
  "redneck</w>": 39105,
  "dropped</w>": 6792,
  "ðŁİ¾</w>": 24222,
  "illy</w>": 9532,
  "hubbard</w>": 33288,
  "oprah</w>": 22562,
  "concord</w>": 26448,
  "sriracha</w>": 42743,
  "viously</w>": 7149,
  "greatly</w>": 13978,
  "_'</w>": 44701,
  "itus</w>": 24364,
  "lands": 40223,
  "lieb</w>": 45387,
  "atiku</w>": 37912,
  "hmm</w>": 13725,
  "ro</w>": 2795,
  "dukes</w>": 27914,
  "swfc</w>": 30227,
  "ellison</w>": 32295,
  "yas</w>": 20570,
  "ë¦¬": 47649,
  "thrills</w>": 39829,
  "vijay</w>": 10823,
  "quan": 11669,
  "leica</w>": 30206,
  "à¸±</w>": 14978,
  "chicken</w>": 3717,
  "humil": 27205,
  "ccs</w>": 30400,
  "croy": 21676,
  "influen": 13229,
  "aam": 12943,
  "!!!\"</w>": 28048,
  "±</w>": 365,
  "anymore</w>": 7372,
  "diffu": 31603,
  "shaved</w>": 25571,
  "granth": 41283,
  "imwith": 26822,
  "visitspain</w>": 48860,
  "raa</w>": 44344,
  "headphones</w>": 14906,
  "suppor": 2104,
  "bhubanes": 41213,
  "heaviest</w>": 33268,
  "editor</w>": 7661,
  "coscino</w>": 47909,
  "richardson</w>": 15984,
  "rin</w>": 11739,
  "vocab": 21346,
  "iling</w>": 3299,
  "deliciously</w>": 39589,
  "amitabh</w>": 48124,
  "beliebers</w>": 27714,
  "jasmine</w>": 17056,
  "mika": 28609,
  "aconf</w>": 38851,
  "gille": 29610,
  "ission</w>": 37946,
  "occasion</w>": 12280,
  "holm</w>": 12739,
  "smashed</w>": 18410,
  "spilling</w>": 49006,
  "receives</w>": 10027,
  "piston</w>": 48236,
  "ement</w>": 2057,
  "rigs</w>": 42893,
  "industry</w>": 3318,
  "histo": 33479,
  "ade": 2194,
  "somaliland</w>": 43315,
  "justintrudeau</w>": 32184,
  "spo</w>": 21085,
  "cept</w>": 3678,
  "belichick</w>": 46132,
  "achat</w>": 32706,
  "imf</w>": 28403,
  "lfc": 37826,
  "believein": 24294,
  "mensfashion</w>": 27578,
  "sleepy": 32572,
  "michel": 5158,
  "circle": 33574,
  "jeopardy</w>": 29613,
  "informat": 29625,
  "lorraine</w>": 27602,
  "receptor</w>": 41835,
  "brisban": 30431,
  "onomy</w>": 36873,
  "ryder": 43564,
  "oakland</w>": 12077,
  "rhonda</w>": 46100,
  "joel": 19819,
  "moore</w>": 6708,
  "smelly</w>": 46145,
  "bess</w>": 43791,
  "senti": 19042,
  "addams</w>": 38912,
  "honors</w>": 10248,
  "sinthe": 30737,
  "aimed</w>": 20247,
  "sl</w>": 7489,
  "pioneer</w>": 12459,
  "vention</w>": 4122,
  "multicul": 28004,
  "lov</w>": 21229,
  "ðŁĳ½": 42677,
  "roo</w>": 31227,
  "memoriam</w>": 48191,
  "rent</w>": 1609,
  "rams</w>": 10292,
  "thinker</w>": 34577,
  "sams</w>": 44667,
  "litecoin</w>": 39063,
  "hydrate</w>": 29628,
  "barnett</w>": 27650,
  "inspired": 39849,
  "mya</w>": 31401,
  "britanni": 31373,
  "itch": 2387,
  "ww</w>": 4491,
  "lob</w>": 46606,
  "entary</w>": 9833,
  "thefilm</w>": 31665,
  "cord</w>": 11181,
  "eq": 39331,
  "milb</w>": 42248,
  "capitalism</w>": 20068,
  "canucks</w>": 24321,
  "confirms</w>": 11803,
  "pier</w>": 11348,
  "cab</w>": 11912,
  "gage</w>": 21081,
  "turnover</w>": 30794,
  "haj": 27885,
  "arvindkejriwal</w>": 22971,
  "out</w>": 620,
  "new": 1218,
  "tad": 15890,
  "hardro": 28126,
  "grizz": 14877,
  "ging</w>": 3905,
  "artistic</w>": 12421,
  "streamed</w>": 26280,
  "kd": 21826,
  "cons</w>": 10311,
  "fiorentina</w>": 43713,
  "ãĤ¯": 31574,
  "zh</w>": 41621,
  "smugg": 28130,
  "japan</w>": 3400,
  "lethal</w>": 21905,
  "jpg</w>": 36950,
  "turnpike</w>": 38301,
  "hays</w>": 41524,
  "rhode</w>": 27907,
  "chainsaw</w>": 37617,
  "eld</w>": 5684,
  "yed": 28137,
  "ffi": 19961,
  "gowan</w>": 31307,
  "boil</w>": 31332,
  "pedia</w>": 11733,
  "golds": 30526,
  "martens</w>": 43211,
  "height</w>": 10788,
  "dalgo</w>": 43614,
  "ðĿĳ": 43794,
  "intensi": 22928,
  "gunsn": 49028,
  "vodka</w>": 13646,
  "hammersmith</w>": 42127,
  "fridaynight": 44858,
  "pr</w>": 4150,
  "berts</w>": 30205,
  "naval</w>": 13273,
  "ðŁĺ£</w>": 32718,
  "demonstrators</w>": 46450,
  "minecraft</w>": 15678,
  "happened</w>": 4402,
  "terry</w>": 8561,
  "mcdon": 12171,
  "fundament": 18852,
  "witty</w>": 29970,
  "charging</w>": 12514,
  "robles</w>": 47646,
  "jags</w>": 31086,
  "omf</w>": 47496,
  "palaces</w>": 45625,
  "represent</w>": 8406,
  "fior": 37086,
  "blackfish</w>": 42193,
  "punch": 29332,
  "accelerator</w>": 25261,
  "heidelberg</w>": 48445,
  "cavali": 20783,
  "ridge": 16580,
  "ðŁİŁ": 19248,
  "flows</w>": 16715,
  "visitation</w>": 44370,
  "aley</w>": 21635,
  "race": 10978,
  "raider": 27368,
  "pancy</w>": 41625,
  "yom": 34718,
  "fro</w>": 26603,
  "crunch</w>": 16620,
  "heis": 21849,
  "iri": 2155,
  "expects</w>": 24536,
  "flip</w>": 11035,
  "powerball</w>": 47803,
  "lovely</w>": 2165,
  "ù": 181,
  "silic": 23830,
  "informal</w>": 25705,
  "tash": 35272,
  "convenience</w>": 17859,
  "saber</w>": 25624,
  "siding</w>": 38758,
  "queens</w>": 9330,
  "rea</w>": 11521,
  "dore</w>": 39423,
  "scully</w>": 36598,
  "daytime</w>": 22830,
  "ily": 4881,
  "turner": 42867,
  "philipp": 5623,
  "clams</w>": 38849,
  "judgment</w>": 24191,
  "office</w>": 2171,
  "accu": 5618,
  "fficial": 39818,
  "spre": 18740,
  "asone</w>": 31249,
  "waf": 17638,
  "compreh": 42976,
  "pennsylvania</w>": 13673,
  "resident</w>": 9016,
  "media": 22064,
  "keys": 48912,
  "weg": 47867,
  "send</w>": 3625,
  "frifotos</w>": 40493,
  "renegade</w>": 41229,
  "lion</w>": 5567,
  "¡ï¸ı": 15113,
  "felicia</w>": 41139,
  "aram</w>": 21473,
  "sli</w>": 44824,
  "naveen</w>": 43837,
  "wrist</w>": 16139,
  "epidemi": 44447,
  "hospit": 7180,
  "dutch</w>": 7991,
  "care</w>": 1776,
  "vpn</w>": 38212,
  "lipstick</w>": 15618,
  "stin</w>": 4025,
  "cafe": 15201,
  "navy</w>": 5598,
  "notification</w>": 22512,
  "suri": 14130,
  "glad": 20841,
  "cell": 9316,
  "apartment</w>": 8285,
  "commemorate</w>": 21242,
  "winnings</w>": 46490,
  "himachal</w>": 35461,
  "martinez</w>": 13913,
  "oyster": 40545,
  "make": 3232,
  "patric": 12569,
  "alonso</w>": 25704,
  "montene": 28538,
  "ðŁİħ": 17685,
  "lesli": 13649,
  "uto</w>": 13683,
  "barri": 8660,
  "malm": 44071,
  "unleash</w>": 26706,
  "openings</w>": 27643,
  "jai</w>": 13819,
  "hurric": 6543,
  "nerd": 24452,
  "qi</w>": 11256,
  "indicates</w>": 29412,
  "keke</w>": 39195,
  "islands</w>": 7145,
  "illery</w>": 14514,
  "boredom</w>": 31460,
  "californi": 21303,
  "lsu": 35428,
  "perfecto</w>": 42898,
  "sbu": 48075,
  "acharya</w>": 45780,
  "doka</w>": 46528,
  "wore</w>": 8953,
  "affe": 4556,
  "groot</w>": 37708,
  "consci": 9427,
  "trailblazers</w>": 35954,
  "prabhu</w>": 31529,
  "tennant</w>": 29310,
  "bok": 26671,
  "íķĺ": 33992,
  "taekwondo</w>": 39963,
  "hilli": 32513,
  "mulberry</w>": 39221,
  "emmanuel": 48045,
  "realised</w>": 17945,
  "kinson</w>": 12095,
  "bk": 15099,
  "bestest</w>": 31199,
  "vh": 46953,
  "hydrau": 26017,
  "crani": 45674,
  "psy": 3576,
  "rier": 40714,
  "most</w>": 1096,
  "wayne</w>": 7003,
  "sill</w>": 48024,
  "distur": 11732,
  "exciting</w>": 4300,
  "wsbtv</w>": 38394,
  "frontiers</w>": 38396,
  "hearted</w>": 21679,
  "ģ</w>": 479,
  "donating</w>": 12621,
  "incentive</w>": 29024,
  "dolce": 30033,
  "meme": 35157,
  "squish": 42607,
  "alek": 26906,
  "zero": 14867,
  "techcrunch</w>": 42110,
  "jack</w>": 3267,
  "mcd</w>": 28930,
  "ÃŃn</w>": 33623,
  "speaker": 25764,
  "dinah</w>": 30903,
  "harrypotter</w>": 23375,
  "luckily</w>": 20100,
  "saturated</w>": 32466,
  "enn</w>": 43563,
  "rabbit</w>": 10274,
  "burnaby</w>": 47541,
  "zad": 47314,
  "comers</w>": 34436,
  "allabout": 43996,
  "monday</w>": 2098,
  "hani": 39944,
  "henley</w>": 27853,
  "medals</w>": 14710,
  "pawn</w>": 43195,
  "fracture</w>": 28995,
  "ferdinand</w>": 27591,
  "oni</w>": 8048,
  "uncover</w>": 33031,
  ":#</w>": 26625,
  "norton</w>": 18032,
  "ogun": 48970,
  "huskies</w>": 20988,
  "derick</w>": 33908,
  "lupita</w>": 49352,
  "paralym": 18727,
  "stocking</w>": 17335,
  "inez</w>": 12700,
  "phosp": 22638,
  "ramesh": 48640,
  "olas</w>": 40800,
  "alexander</w>": 7563,
  "equation</w>": 28591,
  "boot": 10843,
  "kardashi": 13619,
  "guwa": 43063,
  "suisse</w>": 35964,
  "worldbank</w>": 36759,
  "range</w>": 3818,
  "oran</w>": 28395,
  "dsd</w>": 45383,
  "wati</w>": 27966,
  "heated</w>": 17057,
  "pcb</w>": 26235,
  "ðŁİµ": 27435,
  "twister</w>": 45933,
  "forme</w>": 42085,
  "buckeye</w>": 34549,
  "sero": 48883,
  "7": 22,
  "treat</w>": 3901,
  "imagined</w>": 18478,
  "shwar</w>": 41640,
  "manutd</w>": 20994,
  "healthier</w>": 18242,
  "acam": 26172,
  "fan": 1675,
  "bou</w>": 23165,
  "sorority</w>": 30059,
  "ira</w>": 5371,
  "dogg</w>": 20749,
  "emancip": 42996,
  "manu</w>": 25799,
  "xing</w>": 14383,
  "gst</w>": 22239,
  "ao": 7313,
  "shilpa</w>": 40690,
  "looked</w>": 4913,
  "neighbourhood</w>": 20312,
  "latam</w>": 40012,
  "appalachian</w>": 36806,
  "depriv": 45809,
  "kam</w>": 26011,
  "dey</w>": 11829,
  "garry</w>": 24398,
  "knit": 18745,
  "berg</w>": 3294,
  "resting</w>": 18044,
  "nowplaying</w>": 3708,
  "ilya</w>": 33377,
  "hausen</w>": 33338,
  "cocon": 8597,
  "croatian</w>": 34795,
  "recur": 19983,
  "caterpillar</w>": 27111,
  "chemotherapy</w>": 41412,
  "aww</w>": 11568,
  "crane</w>": 14626,
  "bible": 26738,
  "pitt": 7607,
  "herbal</w>": 21868,
  "topus</w>": 21495,
  "abra": 10694,
  "duras</w>": 27518,
  "ended</w>": 2622,
  "pastry</w>": 18582,
  "prostitu": 37333,
  "obscure</w>": 33337,
  "mandate</w>": 26228,
  "rating</w>": 10567,
  "t": 83,
  "titus</w>": 36102,
  "cx": 44457,
  "hard": 3312,
  "invitation</w>": 15032,
  "almond</w>": 15646,
  "bruised</w>": 46502,
  "treehouse</w>": 42387,
  "gotten</w>": 5889,
  "ignorant</w>": 26933,
  "Ã</w>": 383,
  "bn": 10496,
  "nicest</w>": 22967,
  "crafty</w>": 32317,
  "bearded</w>": 28459,
  "haa</w>": 26814,
  "pedal</w>": 19621,
  "river": 5239,
  "cric": 4328,
  "parisi": 45081,
  "prolly</w>": 45968,
  "¾": 122,
  "preci": 5470,
  "ics</w>": 1324,
  "ðŁ¤ĹðŁ¤Ĺ</w>": 44321,
  "gfs</w>": 37553,
  "arized</w>": 40167,
  "mand": 4325,
  "ffici": 3639,
  "asroma</w>": 41000,
  "èªķ": 41293,
  "espionage</w>": 43498,
  "variations</w>": 29025,
  "aday": 31367,
  "ves</w>": 1003,
  "complained</w>": 42029,
  "philosophy</w>": 12213,
  "excuse</w>": 9266,
  "optimus</w>": 43453,
  "poop</w>": 23310,
  "H": 39,
  "insur": 5024,
  "domen": 37584,
  "milestone</w>": 13485,
  "hamburger</w>": 33928,
  "hotspot</w>": 36606,
  "remember": 22045,
  "baker": 27303,
  "recurring</w>": 35912,
  "accenture</w>": 41853,
  "custome": 41323,
  "away": 21088,
  "doo": 4543,
  "goodreads</w>": 31629,
  "deb</w>": 25687,
  "boots</w>": 7319,
  "lyrix</w>": 46814,
  "constitutional</w>": 16091,
  "emper": 12522,
  "rehearsing</w>": 23125,
  "kwame</w>": 46681,
  "lor": 2179,
  "gover": 10471,
  "meredith</w>": 25103,
  "fauna</w>": 30808,
  "altar</w>": 16385,
  "roots</w>": 8084,
  "allianz</w>": 45740,
  "shment</w>": 8802,
  "protector</w>": 20441,
  "tene": 24868,
  "tibet": 19927,
  "magno": 21184,
  "dayswild</w>": 42052,
  "abnormal</w>": 40934,
  "sweetness</w>": 29713,
  "original": 18496,
  "lgm</w>": 39389,
  "omat": 40788,
  "rom</w>": 19205,
  "diverted</w>": 41049,
  "famine</w>": 35847,
  "sensory</w>": 21831,
  "attack</w>": 3815,
  "cathar": 43784,
  "clocks</w>": 25895,
  "transparen": 16108,
  "sentiments</w>": 47450,
  "priorities</w>": 15232,
  "cricket": 21859,
  "bull": 4537,
  "ln": 31644,
  "honored</w>": 5494,
  "prom": 40363,
  "nemo</w>": 30441,
  "freepalestine</w>": 39242,
  "voodoo</w>": 26869,
  "steed</w>": 48293,
  "fsa</w>": 33373,
  "southbound</w>": 22932,
  "mania</w>": 8435,
  "jerry": 18163,
  "kawhi</w>": 41220,
  "buddha</w>": 13981,
  "musik</w>": 32986,
  "prey</w>": 17131,
  "dir": 4251,
  "ith": 6133,
  "ishqba": 32503,
  "axi": 30672,
  "agio</w>": 41746,
  "murals</w>": 31499,
  "ìĨĮë": 20515,
  "surprising</w>": 14964,
  "cyclo": 18122,
  "tored</w>": 38046,
  "surge</w>": 17457,
  "bounty</w>": 21142,
  "upp": 19549,
  "enormous</w>": 20129,
  "ateneo</w>": 33904,
  "raise": 24249,
  "scouting</w>": 19072,
  "jaz</w>": 32874,
  "corbyn</w>": 14026,
  "duggan</w>": 46169,
  "cation</w>": 21367,
  "ovie": 47677,
  "tamilnadu</w>": 32371,
  "opi": 40056,
  "coordinate</w>": 38250,
  "medi": 1436,
  "stage</w>": 2170,
  "style": 12356,
  "celebrity": 23981,
  "strel</w>": 39685,
  "galactic</w>": 25514,
  "campo</w>": 27600,
  "montess": 43205,
  "atra": 20227,
  "carnegie</w>": 25287,
  "bigbaldhead</w>": 30325,
  "tional": 22460,
  "simona</w>": 46277,
  "collector</w>": 13522,
  "pren": 20801,
  "mpi</w>": 43263,
  "bezos</w>": 45000,
  "angor</w>": 41740,
  "ðŁĲĳ</w>": 49389,
  "ylan</w>": 41875,
  "baru</w>": 16356,
  "yoo</w>": 20775,
  "peri</w>": 44068,
  "alls</w>": 1997,
  "secur": 2557,
  "sore</w>": 15454,
  "chem</w>": 13698,
  "ffin</w>": 7367,
  "jalap": 49081,
  "revolt</w>": 31697,
  "ðŁĳĮðŁĳĮðŁĳĮ</w>": 40876,
  "umd</w>": 42067,
  "wareness": 41601,
  "rosy</w>": 46705,
  "indigenous</w>": 9303,
  "lac": 4477,
  "rushing</w>": 20284,
  "vent</w>": 5687,
  "light</w>": 1395,
  "leaps</w>": 48080,
  "shop": 5738,
  "roadtrip</w>": 15094,
  "congress</w>": 4599,
  "patt": 12637,
  "auspol</w>": 8241,
  "tougher</w>": 33722,
  "tess": 21807,
  "ohhh</w>": 27697,
  "angela</w>": 12354,
  "omi": 24097,
  "karen</w>": 10349,
  "proposes</w>": 27133,
  "auditorium</w>": 15063,
  "townfc</w>": 33981,
  "cid</w>": 27359,
  "majors</w>": 23597,
  "masterful</w>": 46823,
  "kiwanis</w>": 46513,
  "signingday</w>": 40282,
  "crores</w>": 37281,
  "rui</w>": 46974,
  "backing</w>": 14935,
  "bypass</w>": 26530,
  "arre": 4374,
  "earth</w>": 3475,
  "glover</w>": 21594,
  "anniversary</w>": 3048,
  "hoover</w>": 25691,
  "enslaved</w>": 48675,
  "swimmers</w>": 27776,
  "hallmark</w>": 32053,
  "rentals</w>": 24105,
  "primavera</w>": 44899,
  "talented</w>": 5331,
  "painting": 49164,
  "sabbath</w>": 26008,
  "joins</w>": 5681,
  "condu": 40772,
  "beavers</w>": 34513,
  "ren": 737,
  "itu": 1668,
  "rahulg": 27510,
  "aoki</w>": 33602,
  "adobe</w>": 16484,
  "cpt</w>": 32892,
  "roy": 2128,
  "flexing</w>": 48483,
  "envision</w>": 49031,
  "rebels</w>": 13623,
  "anist</w>": 16729,
  "ator": 10748,
  "carved</w>": 15127,
  "bn</w>": 7992,
  "ðŁĶª": 47078,
  "smp</w>": 32260,
  "hf": 26606,
  "punc": 43907,
  "snooker</w>": 25657,
  "intolerance</w>": 37808,
  "ðŁĹĵï¸ı</w>": 39847,
  "vaux": 27403,
  "tabby</w>": 36145,
  "brux": 49093,
  "managerial</w>": 44261,
  "welsh</w>": 10977,
  "primal</w>": 36604,
  "tonight</w>": 1009,
  "newe": 40068,
  "enc</w>": 33169,
  "ĺ": 246,
  "midfield</w>": 28116,
  "fitness</w>": 4838,
  "boe": 23476,
  "nephe": 41810,
  "album</w>": 2431,
  "fred": 9486,
  "cree</w>": 36014,
  "hotels</w>": 8654,
  "ashes</w>": 12587,
  "niagar": 39298,
  "dressing</w>": 6348,
  "stoo": 24505,
  "ðŁĩ¸ðŁĩ": 33325,
  "curved</w>": 25789,
  "prefe": 14542,
  "liffe</w>": 38942,
  "beaufort</w>": 45423,
  "said</w>": 1946,
  "lone</w>": 13576,
  "insane</w>": 10260,
  "illustri": 43116,
  "shoul": 29847,
  "boa</w>": 14732,
  "zealand</w>": 7618,
  "invent": 11665,
  "priests</w>": 30005,
  "influenced</w>": 21183,
  "ias": 32303,
  "onesie</w>": 33237,
  "bonjour</w>": 33176,
  "mlb</w>": 7482,
  "buzz": 7866,
  "dress": 12622,
  "pyramids</w>": 36877,
  "stigate</w>": 15390,
  "manor": 41830,
  "iland</w>": 20957,
  "tamanna": 48055,
  "artist": 14326,
  "ausbiz</w>": 46543,
  "ona</w>": 2687,
  "whisky</w>": 12599,
  "redhead</w>": 36267,
  "onlineshopping</w>": 38587,
  "sary</w>": 15398,
  "biblio": 49131,
  "huston</w>": 46480,
  "mcdonalds</w>": 17674,
  "exol</w>": 42856,
  "mexican</w>": 8186,
  "atic</w>": 2647,
  "confession</w>": 22572,
  "mcqueen</w>": 22544,
  "learning</w>": 2378,
  "bodybuilding</w>": 24538,
  "spotify</w>": 7193,
  "][#</w>": 39009,
  "emil</w>": 40624,
  "husbands</w>": 33612,
  "shun</w>": 39594,
  "carsforsale</w>": 45222,
  "blink</w>": 18976,
  "zano</w>": 27637,
  "ws</w>": 799,
  "frank</w>": 5229,
  "tawa</w>": 29035,
  "lists</w>": 12281,
  "awa": 4820,
  "goth": 48465,
  "sila</w>": 41754,
  "vier": 15352,
  "lero": 15067,
  "âĢ": 728,
  "ðŁĳĮðŁı¼": 37655,
  "sleepy</w>": 14497,
  "knowledge</w>": 5510,
  "oxford</w>": 8824,
  "innovator</w>": 34735,
  "thum": 14679,
  "gall</w>": 33374,
  "tester</w>": 32707,
  "iber": 23814,
  "quattro</w>": 40300,
  "mahog": 30804,
  "awk</w>": 40943,
  "tourde": 39247,
  "sler</w>": 14066,
  "expenditure</w>": 47044,
  "rav": 14367,
  "blinded</w>": 49149,
  "wahlberg</w>": 35151,
  "deepikap": 29903,
  "hold</w>": 3254,
  "semit": 22628,
  "ourism</w>": 25496,
  "swims</w>": 46798,
  "boon</w>": 35821,
  "medicaid</w>": 25421,
  "asam": 40603,
  "freshmen</w>": 21292,
  "ernation</w>": 48796,
  "lawsuit</w>": 14346,
  "gag</w>": 18844,
  "wps</w>": 33386,
  "ferdin": 25541,
  "yourown": 28583,
  "ont": 34303,
  "bc</w>": 2162,
  "mermaids</w>": 43617,
  "protesters</w>": 12660,
  "quebec</w>": 15373,
  "penn</w>": 11128,
  "bengaluru</w>": 21707,
  "minh</w>": 48734,
  "martial</w>": 17088,
  "gopdebate</w>": 39806,
  "concer": 2228,
  "valencia</w>": 16559,
  "schubert</w>": 46939,
  "shock": 19617,
  "nepal": 25597,
  "walk": 8588,
  "nl": 12057,
  "molten</w>": 46071,
  "sap": 8089,
  "graham": 19805,
  "tware</w>": 5707,
  "garth</w>": 24469,
  "planets</w>": 22315,
  "litter": 45431,
  "if</w>": 878,
  "spoons</w>": 29661,
  "ahmad</w>": 16902,
  "duplex</w>": 41186,
  "titans</w>": 13066,
  "timber</w>": 16246,
  "maker</w>": 4836,
  "ðŁĳĮðŁı»</w>": 18606,
  "omega</w>": 13465,
  "pepp": 34425,
  "dealers</w>": 21697,
  "alina</w>": 39529,
  "radial</w>": 42028,
  "soren": 38907,
  "from": 8330,
  "nag</w>": 23902,
  "intel": 11778,
  "levine</w>": 26594,
  "breakingnews</w>": 23837,
  "gettys": 35189,
  "hawthorne</w>": 36730,
  "wald</w>": 15724,
  "rescue</w>": 5718,
  "teh</w>": 29601,
  "equ": 2563,
  "beach</w>": 2117,
  "starting</w>": 2530,
  "hurst": 44742,
  "sani": 39137,
  "gian</w>": 12866,
  "ew": 11942,
  "come": 4225,
  "deep</w>": 3383,
  "behalf</w>": 11470,
  "henge</w>": 33104,
  "asb</w>": 31186,
  "builder</w>": 14474,
  "thigh": 47124,
  "G": 38,
  "promis": 3963,
  "yak</w>": 29074,
  "fly</w>": 3228,
  "div": 5293,
  "blake": 20229,
  "stras": 36814,
  "flames</w>": 13441,
  "intestinal</w>": 38896,
  "ðŁĶİ</w>": 44935,
  "von</w>": 8497,
  "tig</w>": 31999,
  "pouch</w>": 26811,
  "gif": 11363,
  "punks</w>": 47171,
  "niagara</w>": 18965,
  "pull": 20155,
  "genomics</w>": 26227,
  "æľ¬": 44353,
  "located</w>": 5677,
  "mirai</w>": 49060,
  "unclear</w>": 32955,
  "therine": 26807,
  "raz</w>": 19087,
  "noor": 46978,
  "lton</w>": 14237,
  "pha</w>": 26255,
  "adam": 6037,
  "create": 30949,
  "forestry</w>": 26281,
  "âĻ¡": 11091,
  "itutes</w>": 32883,
  "resources</w>": 6723,
  "ðŁİŃ</w>": 28856,
  "changing</w>": 5621,
  "cine": 4015,
  "ick</w>": 1068,
  "infected</w>": 26136,
  "partial</w>": 18957,
  "apex": 41935,
  "depo": 14276,
  "pse": 19737,
  "lauren</w>": 7634,
  "robbie": 37200,
  "!'</w>": 13222,
  "residents</w>": 6008,
  "dungeon": 28812,
  "junior": 21167,
  "icecream</w>": 21334,
  "loch</w>": 14101,
  "welcoming</w>": 8775,
  "belly</w>": 10404,
  "bz</w>": 13631,
  "supportlocal</w>": 43852,
  "deprived</w>": 39140,
  "wigs</w>": 31207,
  "esh": 17119,
  "issuing</w>": 37226,
  "thisis": 14887,
  "ãĤ·": 37665,
  "korn</w>": 31492,
  "publichealth</w>": 35872,
  "evangelist</w>": 42275,
  "lito</w>": 47381,
  "identify</w>": 10949,
  "handle": 43681,
  "allows</w>": 9966,
  "oste": 20632,
  "adid": 8086,
  "hoff</w>": 22751,
  "zx</w>": 31604,
  "perme": 42456,
  "pap</w>": 30756,
  "pil": 2893,
  "organics</w>": 44199,
  "art</w>": 794,
  "sula": 34713,
  "des": 6797,
  "cert</w>": 27522,
  "nes": 5457,
  "reign</w>": 14827,
  "linear</w>": 19816,
  "arjuna</w>": 43835,
  "souri</w>": 11674,
  "headband</w>": 28556,
  "ãģ¨ç¹ĭãģĮãĤĬãģŁãģĦ</w>": 48290,
  "instruments</w>": 14793,
  "jisoo</w>": 43070,
  "tuscaloosa</w>": 44375,
  "asin": 48432,
  "ethos</w>": 48768,
  "poly": 6833,
  "jurisdic": 37714,
  "pung</w>": 45420,
  "exquis": 16575,
  "utz</w>": 45320,
  "mar</w>": 3091,
  "robb": 14059,
  "jackets</w>": 14745,
  "nicol</w>": 48274,
  "factory": 42483,
  "travelblogger</w>": 25494,
  "stardust</w>": 34337,
  "soe": 44136,
  "direction": 15923,
  "relu": 32058,
  "dye": 37159,
  "ds</w>": 646,
  "rowan</w>": 26240,
  "boulder</w>": 18260,
  "pkg</w>": 49011,
  "ghue</w>": 45675,
  "course</w>": 2613,
  "camogie</w>": 39547,
  "tool": 13718,
  "ritual</w>": 19712,
  "midi": 39496,
  "glory</w>": 7285,
  "teased</w>": 49122,
  "apor": 21871,
  "thierry</w>": 32929,
  "kumb": 31391,
  "ferris</w>": 27532,
  "startup": 18049,
  "lorenzo</w>": 21342,
  "siva</w>": 20991,
  "whispering</w>": 42599,
  "drawing": 36996,
  "mys</w>": 11724,
  "lax": 17750,
  "described</w>": 14671,
  "morri": 9876,
  "kidding</w>": 14535,
  "ðŁİīðŁİī</w>": 13450,
  "mattel</w>": 35365,
  "sato</w>": 34376,
  "annual</w>": 2906,
  "preparedness</w>": 29492,
  "lab": 3537,
  "peek": 46323,
  "aimo</w>": 36706,
  "gemini</w>": 23086,
  "crumbs</w>": 35893,
  "stra": 1894,
  "thn</w>": 45587,
  "ahaha</w>": 32423,
  "asto": 47275,
  "preserving</w>": 32315,
  "jeanette</w>": 48167,
  "....": 2386,
  "jav": 6234,
  "depicting</w>": 24970,
  "karanjohar</w>": 47621,
  "rapist</w>": 33360,
  "skril": 43149,
  "lothing</w>": 42058,
  "mccormick</w>": 39088,
  "ðŁĳ£</w>": 39755,
  "diy</w>": 7845,
  "pandoramusic</w>": 42344,
  "fbf</w>": 20004,
  "loo": 731,
  "bio</w>": 5162,
  "newport</w>": 14846,
  "barons</w>": 45596,
  "httr</w>": 49372,
  "removes</w>": 29018,
  "protect</w>": 4817,
  "wifey</w>": 35282,
  "prisc": 32468,
  "hbo</w>": 15252,
  "fiber": 35074,
  "<<<</w>": 35054,
  "eugen": 30678,
  "solid</w>": 6148,
  "verti": 30459,
  "indhoven</w>": 44229,
  "wooden</w>": 9057,
  "brunette</w>": 35528,
  "innovative</w>": 8494,
  "forests</w>": 14095,
  "zach</w>": 11815,
  "bakhtawar": 46937,
  "ðŁĺŃ": 2962,
  "lesbian</w>": 17419,
  "pierced</w>": 32799,
  "sundaywithmarsha</w>": 26662,
  "dam</w>": 4926,
  "examiner</w>": 29149,
  "fifth": 25515,
  "itech</w>": 23040,
  "wildflower": 27628,
  "schiff</w>": 39431,
  "hm</w>": 7631,
  "properties</w>": 10922,
  "liveon": 22815,
  "libby</w>": 36832,
  "smells</w>": 14668,
  "meme</w>": 9169,
  "pruning</w>": 48133,
  "S": 50,
  "duh</w>": 26716,
  "rated</w>": 8183,
  "mcgu": 34294,
  "sweetheart</w>": 18079,
  "sheil": 42765,
  "alley</w>": 10329,
  "subjec": 16090,
  "shortlisted</w>": 20631,
  "party": 12877,
  "manual</w>": 12268,
  "lower": 32578,
  "ðŁĮ": 1576,
  "thebeatles</w>": 35645,
  "jol": 9174,
  "harrisburg</w>": 40590,
  "holly</w>": 11923,
  "spade</w>": 32562,
  "tasting</w>": 7656,
  "certain</w>": 7883,
  "findlay</w>": 48227,
  "stru": 1666,
  "gents</w>": 18862,
  "đ": 205,
  "southeast</w>": 13942,
  "sapp</w>": 40729,
  "daw</w>": 24404,
  "dominican</w>": 22934,
  "dungeonsanddragons</w>": 35497,
  "clusters</w>": 33217,
  "gil</w>": 10088,
  "corp": 29203,
  "F</w>": 293,
  "erwin</w>": 43724,
  "åĭ": 47505,
  "wages</w>": 19114,
  "tdsb</w>": 29836,
  "pixelart</w>": 18516,
  "determination</w>": 17410,
  "compri": 29445,
  "butcher</w>": 18732,
  "versace</w>": 25422,
  "ym</w>": 19587,
  "fuels</w>": 19365,
  "tobi": 40335,
  "macbook</w>": 20617,
  "employee": 36631,
  "money</w>": 2327,
  "artwork</w>": 4188,
  "miracles</w>": 23478,
  "cool</w>": 2077,
  "ðŁĵ°</w>": 14985,
  "consensus</w>": 25071,
  "pension": 32840,
  "anchor</w>": 13201,
  "ilove</w>": 32914,
  "years</w>": 1151,
  "richar": 9350,
  "galapagos</w>": 44057,
  "leaning</w>": 24411,
  "eigh": 13468,
  "ë°©": 23273,
  "caricature</w>": 38857,
  "jag": 7984,
  "goodday": 46284,
  "viso</w>": 46732,
  "fought</w>": 10844,
  "workspace</w>": 34470,
  "osbourne</w>": 43376,
  "september</w>": 3707,
  "argy": 21066,
  "mun": 2617,
  "lour": 29383,
  "manga</w>": 11873,
  "referen": 13535,
  "filtr": 21408,
  "adero</w>": 49185,
  "well</w>": 1123,
  "hot</w>": 2069,
  "uneven</w>": 43204,
  "tba</w>": 34363,
  "mark": 3805,
  "circuits</w>": 33260,
  "ðŁĴ¯ðŁĴ¯</w>": 44070,
  "$$$</w>": 31859,
  "trends</w>": 7015,
  "¶": 114,
  "argus</w>": 44300,
  "lonely": 34509,
  "cellphone</w>": 39029,
  "digitalhealth</w>": 32190,
  "katrina</w>": 21397,
  "standard</w>": 5807,
  "pci</w>": 38957,
  "mized</w>": 43418,
  "gram</w>": 2338,
  "icu": 45118,
  "bonanza</w>": 40304,
  "protesting</w>": 18788,
  "benoit</w>": 44373,
  "fax": 32535,
  "singleton</w>": 46247,
  "matching</w>": 11840,
  "blast</w>": 5964,
  "actonclimate</w>": 43797,
  "heads</w>": 5174,
  "tempered</w>": 40521,
  "mastercard</w>": 40542,
  "kong</w>": 6506,
  "thorough": 15294,
  "lom": 9279,
  "prevail</w>": 31637,
  "dilig": 30664,
  "complimentary</w>": 20948,
  "buses</w>": 12879,
  "shana</w>": 44835,
  "ramadhan</w>": 47415,
  "mant": 25122,
  "kristen</w>": 16644,
  "yds</w>": 24819,
  "navis</w>": 36377,
  "¿</w>": 379,
  "partners</w>": 5568,
  "col": 754,
  "sparrow</w>": 22888,
  "cleavage</w>": 44165,
  "sabotage</w>": 40496,
  "ori</w>": 8693,
  "attention</w>": 4936,
  "entertain": 5566,
  "skirt</w>": 12386,
  "narco": 38461,
  "wool</w>": 13283,
  "hs</w>": 2466,
  "literary</w>": 13586,
  "gger</w>": 3493,
  "yourself</w>": 3053,
  "elders</w>": 28617,
  "qpr</w>": 24788,
  "ito": 22167,
  "ssc": 21692,
  "unfor": 14010,
  "od": 4886,
  "vod": 11820,
  "ðŁ¦ħ</w>": 28800,
  "dev</w>": 3670,
  "shawty</w>": 38026,
  "known</w>": 3102,
  "yaa": 48847,
  "kelly": 13417,
  "railway": 27614,
  "hikes</w>": 27076,
  "engine</w>": 5857,
  "circulare": 39525,
  "chandi": 12482,
  "raul</w>": 30218,
  "ffl</w>": 39490,
  "ğ": 219,
  "aggio</w>": 36685,
  "hollyoaks</w>": 43352,
  "cambridge": 24651,
  "xmas</w>": 6425,
  "musically</w>": 48893,
  "phobia</w>": 28749,
  "uy</w>": 48113,
  "watchdog</w>": 35303,
  "discord</w>": 23582,
  "kou</w>": 39614,
  "meow</w>": 17246,
  "shawn": 16677,
  "bout</w>": 8123,
  "white": 4699,
  "twick": 34326,
  "à¹ĥ": 40962,
  "tout</w>": 22300,
  "makeyourownlane</w>": 34823,
  "sparring</w>": 42161,
  "gc": 8577,
  "mach": 2637,
  "profound</w>": 22998,
  "hamradio</w>": 36712,
  "webcamtoy</w>": 27719,
  "seldom</w>": 48322,
  "has</w>": 791,
  "ajax</w>": 21933,
  "mcm</w>": 12251,
  "wtc</w>": 39718,
  "bell</w>": 3718,
  "onlinemarketing</w>": 41820,
  "generations</w>": 12247,
  "awards": 34528,
  "segreg": 49117,
  "miniatures</w>": 38816,
  "destination</w>": 9179,
  "strangerthings</w>": 43271,
  "vish": 12024,
  "spf</w>": 34973,
  "loved</w>": 3249,
  "exporting</w>": 47433,
  "ppings</w>": 35687,
  "nate</w>": 7587,
  "layer</w>": 12411,
  "regulation</w>": 14267,
  "cho": 1327,
  "bridesma": 28356,
  "emissions</w>": 14172,
  "tvn</w>": 44232,
  "gett</w>": 27965,
  "mell</w>": 41583,
  "purcell</w>": 46065,
  "souther": 33330,
  "sobs</w>": 43636,
  "chuffed</w>": 27233,
  "bethle": 30760,
  "ðŁĩº": 4054,
  "Ã£": 19339,
  "vidal</w>": 36678,
  "eunhyuk</w>": 47526,
  "dexter": 45049,
  "private": 20362,
  "than</w>": 1126,
  "Ô</w>": 400,
  "grey": 9190,
  "batb</w>": 33962,
  "imc</w>": 45616,
  "houston</w>": 5663,
  "karan": 20077,
  "tornado</w>": 9062,
  "ega</w>": 41193,
  "shipped</w>": 15279,
  "clyde</w>": 18469,
  "booze</w>": 24341,
  "esis</w>": 12414,
  "nga</w>": 35477,
  "clos</w>": 48821,
  "deephouse</w>": 35684,
  "!!!!!!!</w>": 15203,
  "ajith</w>": 24118,
  "propel</w>": 48439,
  "rebu": 43162,
  "onsale</w>": 36324,
  "amal": 15315,
  "tsunami</w>": 24286,
  "quit</w>": 11140,
  "wong</w>": 17876,
  "marlin</w>": 34275,
  "byl</w>": 34994,
  "prag": 31025,
  "pale": 4768,
  "ascen": 20767,
  "county": 18734,
  "endo": 13476,
  "expat</w>": 43900,
  "largo</w>": 44161,
  "departure</w>": 17850,
  "ayo</w>": 18708,
  "pering</w>": 29746,
  "ppen</w>": 30663,
  "llers</w>": 26426,
  "publications</w>": 27334,
  "talents</w>": 16136,
  "sku": 10836,
  "belarus</w>": 30849,
  "stonehenge</w>": 42417,
  "apartments</w>": 15791,
  "awaits</w>": 15635,
  "Â´": 30560,
  "sportsman</w>": 39020,
  "vau": 6391,
  "hdd</w>": 40508,
  "offenders</w>": 35878,
  "dipped</w>": 30610,
  "vascular</w>": 19218,
  "cryo": 32215,
  "atee</w>": 32839,
  "fantastic": 31289,
  "nelly</w>": 21166,
  "switch</w>": 5893,
  "follower</w>": 17039,
  "include</w>": 5942,
  "tuition</w>": 21129,
  "lamb": 19863,
  "pike</w>": 14011,
  "hailing</w>": 47288,
  "retro</w>": 7755,
  "zay": 7102,
  "hon": 1279,
  "chall": 2073,
  "yeh</w>": 21331,
  "inferno</w>": 31290,
  "watt</w>": 15805,
  "hatch": 24202,
  "medieval</w>": 10789,
  "playback</w>": 39194,
  "backstage</w>": 9236,
  "rov</w>": 23971,
  "bubbly</w>": 31034,
  "doro</w>": 37389,
  "giveaways</w>": 18974,
  "tani": 31374,
  "musical</w>": 5173,
  "calais</w>": 39886,
  "neville</w>": 19269,
  "closures</w>": 22923,
  "mariners</w>": 19086,
  "biz": 8212,
  "cardiovascular</w>": 29291,
  "dhar": 12397,
  "hubble</w>": 30421,
  "tsfor": 42654,
  "sathletics</w>": 30154,
  "train</w>": 3231,
  "troll": 39737,
  "Ģ": 222,
  "button</w>": 8007,
  "beatrice</w>": 36922,
  "politician</w>": 15960,
  "ðŁİ¸": 29135,
  "ä": 160,
  "contracting</w>": 39091,
  "teacher": 18051,
  "jou": 19921,
  "undergoing</w>": 26419,
  "beneficial</w>": 24660,
  "lynn": 25303,
  "alphon": 37865,
  "+)</w>": 34810,
  "bin": 4849,
  "claim</w>": 6607,
  "alvaro</w>": 41941,
  "kirsten</w>": 31813,
  "infographics</w>": 33172,
  "studyabroad</w>": 45425,
  "scrambled</w>": 39026,
  "dataviz</w>": 28138,
  "spades</w>": 48368,
  "fueled</w>": 28792,
  "dozen</w>": 16401,
  "drip</w>": 24050,
  "dolce</w>": 30661,
  "tip": 15383,
  "leen</w>": 15940,
  "geri": 41664,
  "adju": 16413,
  "scissors</w>": 30867,
  "âķĲ": 48039,
  "switched</w>": 22869,
  "ðŁĺ¥</w>": 23951,
  "ester</w>": 45808,
  "cruise</w>": 6764,
  "docs</w>": 15157,
  "notified</w>": 39454,
  "transformers</w>": 17843,
  "devil</w>": 8043,
  "sunburn</w>": 45767,
  "bobcat</w>": 37896,
  "goss</w>": 36924,
  "salut": 44998,
  "christmaseve</w>": 44381,
  "aged</w>": 3889,
  "escorts</w>": 48574,
  "ahn</w>": 33405,
  "transit</w>": 10174,
  "acos</w>": 39943,
  "apologies</w>": 21959,
  "husband</w>": 6179,
  "highered</w>": 27072,
  "hod": 31062,
  "separated</w>": 22163,
  "sweatshirt</w>": 22442,
  "submerged</w>": 43171,
  "counselling</w>": 40581,
  "victori": 17555,
  "ðŁĺĤðŁĺį</w>": 43128,
  "charge</w>": 5948,
  "cedric</w>": 36608,
  "uswnt</w>": 35255,
  "...........</w>": 35008,
  "sleep": 4656,
  "ebo</w>": 46635,
  "repaired</w>": 32953,
  "tetris</w>": 45934,
  "awgs</w>": 35275,
  "bio": 2830,
  "brett": 22591,
  "declaring</w>": 33273,
  "blo</w>": 25505,
  "recycla": 40659,
  "manife": 14379,
  "spon</w>": 48216,
  "prophe": 9662,
  "pip</w>": 30854,
  "musc": 5696,
  "pontifex</w>": 33566,
  "lv</w>": 11184,
  "shakespeare</w>": 12488,
  "aberdeen</w>": 17236,
  "dez</w>": 8122,
  "ĉ</w>": 453,
  "github</w>": 31196,
  "pnw</w>": 31521,
  "alcat": 35361,
  "ior</w>": 2498,
  "pirate": 38680,
  "bog": 23426,
  "mota</w>": 42499,
  "bumper</w>": 17881,
  "meek</w>": 28935,
  "ðŁĵ¢": 46560,
  "searches</w>": 26378,
  "housed</w>": 37518,
  "bulgaria</w>": 20295,
  "robinson</w>": 8523,
  "ruler</w>": 26286,
  "rubbed</w>": 45239,
  "pg</w>": 5211,
  "shaq": 46402,
  "marvel</w>": 5996,
  "orchestra</w>": 9573,
  "enig": 19754,
  "ðŁĮ·": 32328,
  "blat": 22048,
  "etf</w>": 31661,
  "practi": 29995,
  "seth</w>": 11870,
  "raman</w>": 39816,
  "turbo": 23578,
  "eb</w>": 8677,
  "squeeze</w>": 21684,
  "dems</w>": 10989,
  "sae</w>": 34883,
  "swords</w>": 27181,
  "depre": 7107,
  "stopping</w>": 10735,
  "dated</w>": 13564,
  "breastcancer</w>": 30065,
  "shari</w>": 47390,
  "combe</w>": 14363,
  "avent": 22700,
  "algon": 33007,
  "prima": 35611,
  "mkt</w>": 24814,
  "dogcelebration</w>": 41819,
  "porto</w>": 18947,
  "emen</w>": 22033,
  "standre": 48309,
  "jin": 7927,
  "armist": 38150,
  "ðŁĺĥ</w>": 8520,
  "my</w>": 607,
  "pace</w>": 9450,
  "prescott</w>": 29392,
  "whew</w>": 39016,
  "gouache</w>": 43314,
  "implementing</w>": 22862,
  "tranquility</w>": 36688,
  "falkirk</w>": 44080,
  "consortium</w>": 29988,
  "figures</w>": 8739,
  "marvel": 13835,
  "tca</w>": 35116,
  "howie</w>": 42939,
  "heb": 24700,
  "retailers</w>": 19418,
  "af</w>": 4391,
  "swim</w>": 7681,
  "sciencefiction</w>": 39170,
  "starship</w>": 37166,
  "hsv</w>": 47311,
  "unity": 38300,
  "vincen": 33402,
  "revamp</w>": 29819,
  "ðŁĹĵ": 34335,
  "taka": 24070,
  "dete": 5606,
  "dac": 16222,
  "minding</w>": 45337,
  "âĢİ</w>": 31001,
  "memorialday</w>": 21598,
  "spa</w>": 6692,
  "extreme": 38357,
  "entre": 34188,
  "elon</w>": 20406,
  "bust</w>": 9959,
  "haley</w>": 16839,
  "wwc</w>": 26505,
  "goldcoast</w>": 34634,
  "marine": 20674,
  "pratt": 37863,
  "alive</w>": 4716,
  "freak</w>": 13701,
  "operational</w>": 18237,
  "dip</w>": 11343,
  "commonwealth</w>": 16569,
  "netfli": 6304,
  "payton</w>": 27348,
  "sov</w>": 29737,
  "fayre</w>": 34982,
  "turnbull</w>": 27863,
  "eagle</w>": 7517,
  "yemen</w>": 12513,
  "enka</w>": 43942,
  "grims": 34861,
  "currently</w>": 3792,
  "enced</w>": 6549,
  "tragically</w>": 39599,
  "ðŁĴĥðŁĴĥ": 28041,
  "bena</w>": 46249,
  "millennium</w>": 21116,
  "lfc</w>": 8267,
  "enhances</w>": 38259,
  "turf</w>": 12510,
  "afs</w>": 48960,
  "talis": 36480,
  "wis</w>": 20405,
  "downer</w>": 42522,
  "vocabulary</w>": 23804,
  "organ": 3338,
  "film": 5117,
  "mediter": 14194,
  "tuna</w>": 15037,
  "customs</w>": 16880,
  "viva</w>": 17399,
  "dusting</w>": 41756,
  "isabel</w>": 27466,
  "ÙĬ</w>": 23853,
  "nz</w>": 7082,
  "essential": 47264,
  "neighbors</w>": 13037,
  "naruto</w>": 22732,
  "cafes</w>": 40166,
  "anir": 27089,
  "maharashtra</w>": 19328,
  "seve</w>": 22468,
  "iting</w>": 1257,
  "mabel</w>": 47319,
  "rown": 22287,
  "rajasthan</w>": 18017,
  "bend</w>": 13332,
  "henson</w>": 32935,
  "ergy</w>": 19550,
  "x</w>": 343,
  "focus</w>": 4353,
  "give": 4120,
  "ðŁĮ²": 34071,
  "notre</w>": 15306,
  "hallelujah</w>": 36993,
  "ðŁĻĮ</w>": 4855,
  "hr</w>": 4086,
  "cycling": 26353,
  "catalina</w>": 36576,
  "solar": 16990,
  "orchids</w>": 28376,
  "marg</w>": 44014,
  "twenti": 35167,
  "downloaded</w>": 22961,
  "pistachio</w>": 36320,
  "physique</w>": 42884,
  "mags</w>": 31021,
  "pug</w>": 17739,
  "proceed": 26664,
  "kenya</w>": 6181,
  "interception</w>": 48762,
  "pickled</w>": 21705,
  "muham": 10043,
  "durham</w>": 14335,
  "happythanksgiving</w>": 40593,
  "kristina</w>": 33180,
  "etv": 49155,
  "fsu": 44185,
  "Ą</w>": 448,
  "roadway</w>": 42744,
  "movers</w>": 33957,
  "book": 2828,
  "\";</w>": 37549,
  "renewables</w>": 21619,
  "code</w>": 3217,
  "pne": 30966,
  "spot": 3223,
  "soothing</w>": 27730,
  "dignit": 39497,
  "tradio</w>": 20689,
  "describing</w>": 24239,
  "ber</w>": 1516,
  "offices</w>": 10933,
  "fragments</w>": 41424,
  "amore</w>": 22691,
  "polk</w>": 33317,
  "ìĬ¤": 20305,
  "goggles</w>": 31027,
  "guinea</w>": 18537,
  "thankyou</w>": 9911,
  "relev": 9349,
  "cookout</w>": 39743,
  "cracks</w>": 21426,
  "sock": 29801,
  "woof": 34234,
  "kett": 23124,
  "cana</w>": 28341,
  "iam": 3579,
  "dia</w>": 3357,
  "administr": 12174,
  "brakes</w>": 23456,
  "velo": 14357,
  "bil": 3092,
  "bho": 19721,
  "cahill</w>": 33185,
  "ated": 14589,
  "rulers</w>": 45328,
  "kanu</w>": 44565,
  "trade</w>": 3629,
  "dens</w>": 16533,
  "infringe": 44882,
  "racer</w>": 16798,
  "adhesive</w>": 38429,
  "spiked</w>": 47014,
  "micky</w>": 43011,
  "hastings</w>": 22035,
  "drafted</w>": 19129,
  "asingly</w>": 15803,
  "snowing</w>": 21443,
  "mer</w>": 2452,
  "notsorry</w>": 34361,
  "vid": 17233,
  "bookshop</w>": 24705,
  "carleton</w>": 46496,
  "stupi": 18975,
  "larson</w>": 27973,
  "jersey": 21921,
  "spending</w>": 5961,
  "tshirt</w>": 14907,
  "nail</w>": 9059,
  "fÃ©": 34072,
  "hak": 25142,
  "ummer</w>": 47628,
  "reversible</w>": 34212,
  "horan</w>": 26857,
  "entially</w>": 37695,
  "sarab": 40716,
  "nyc</w>": 2832,
  "donation</w>": 7924,
  "hepburn</w>": 26348,
  "killed</w>": 3733,
  "Ã¼r": 26132,
  "scoreboard</w>": 30104,
  "unk</w>": 5542,
  "aamir</w>": 27456,
  "stealth</w>": 25327,
  "penalties</w>": 25417,
  "oppa</w>": 23637,
  "dirk</w>": 28171,
  "shab": 8323,
  "mla</w>": 16723,
  "bast": 28092,
  "displa": 9326,
  "flame": 40351,
  "vets</w>": 13113,
  "assortment</w>": 43112,
  "tactic</w>": 40377,
  "azte": 33270,
  "kers</w>": 2880,
  "stips</w>": 44756,
  "abhin": 44045,
  "archives</w>": 9411,
  "add": 19408,
  "wandering</w>": 22597,
  "lizasober": 44487,
  "instap": 23758,
  "kingdom": 21870,
  "na": 1097,
  "conditioner</w>": 31239,
  "cudd": 12820,
  "washington": 16774,
  "winged</w>": 24993,
  "like</w>": 789,
  "litt</w>": 47583,
  "cir</w>": 41135,
  "strian</w>": 12924,
  "sussex</w>": 13266,
  "wilshere</w>": 48359,
  "leap": 29129,
  "croati": 28072,
  "mountains</w>": 5873,
  "fasting</w>": 24656,
  "mper</w>": 22803,
  "glacial</w>": 40782,
  "dorset": 42109,
  "retail</w>": 6455,
  "hides</w>": 30800,
  "tup": 37956,
  "ellie</w>": 16769,
  "basketball</w>": 3835,
  "frankie": 38373,
  "fiber</w>": 12612,
  "selfie": 26735,
  "robby</w>": 44128,
  "rrp</w>": 36967,
  "ignite</w>": 25210,
  "advan": 33411,
  "akest</w>": 46679,
  "first": 6853,
  "influenza</w>": 39897,
  "sandal": 36445,
  "tvxq</w>": 43968,
  "frie": 36999,
  "fairi": 28884,
  "stacked</w>": 24990,
  "´</w>": 368,
  "awar": 5745,
  "pharaoh</w>": 40437,
  "scout": 32213,
  "francisco</w>": 6887,
  "ê°ķ": 45758,
  "saddest</w>": 34925,
  "tulane</w>": 44893,
  "silent": 30352,
  "mason": 17424,
  "boro</w>": 7974,
  "clock": 19878,
  "capturing</w>": 19548,
  "enthusiast</w>": 27153,
  "poet": 41019,
  "analytics</w>": 8558,
  "thank": 2790,
  "punk</w>": 7246,
  "snail</w>": 23132,
  "pulse": 40091,
  "vball</w>": 38329,
  "commentary</w>": 14146,
  "tal": 976,
  "bacteria</w>": 16556,
  "ðŁĺ»</w>": 12911,
  "reissue</w>": 34042,
  "integrate</w>": 25735,
  "ael</w>": 43340,
  "tells</w>": 5217,
  "caring</w>": 13083,
  "zl</w>": 39168,
  "doit</w>": 28109,
  "vasc</w>": 40995,
  "Ð»": 47611,
  "teaches</w>": 17110,
  "haye": 36583,
[...]
